{
  "version": "1.0",
  "truncation": null,
  "padding": null,
  "added_tokens": [
    {
      "id": 0,
      "content": "[PAD]",
      "single_word": false,
      "lstrip": false,
      "rstrip": false,
      "normalized": false,
      "special": true
    },
    {
      "id": 1,
      "content": "[BOS]",
      "single_word": false,
      "lstrip": false,
      "rstrip": false,
      "normalized": false,
      "special": true
    },
    {
      "id": 2,
      "content": "[EOS]",
      "single_word": false,
      "lstrip": false,
      "rstrip": false,
      "normalized": false,
      "special": true
    }
  ],
  "normalizer": null,
  "pre_tokenizer": {
    "type": "ByteLevel",
    "add_prefix_space": false,
    "trim_offsets": true,
    "use_regex": true
  },
  "post_processor": null,
  "decoder": {
    "type": "ByteLevel",
    "add_prefix_space": true,
    "trim_offsets": true,
    "use_regex": true
  },
  "model": {
    "type": "BPE",
    "dropout": null,
    "unk_token": null,
    "continuing_subword_prefix": null,
    "end_of_word_suffix": null,
    "fuse_unk": false,
    "byte_fallback": false,
    "ignore_merges": false,
    "vocab": {
      "[PAD]": 0,
      "[BOS]": 1,
      "[EOS]": 2,
      "!": 3,
      "\"": 4,
      "$": 5,
      "%": 6,
      "&": 7,
      "'": 8,
      "(": 9,
      ")": 10,
      ",": 11,
      "-": 12,
      ".": 13,
      "/": 14,
      "0": 15,
      "1": 16,
      "2": 17,
      "3": 18,
      "4": 19,
      "5": 20,
      "6": 21,
      "7": 22,
      "8": 23,
      "9": 24,
      ":": 25,
      ";": 26,
      "=": 27,
      "?": 28,
      "@": 29,
      "A": 30,
      "B": 31,
      "C": 32,
      "D": 33,
      "E": 34,
      "F": 35,
      "G": 36,
      "H": 37,
      "I": 38,
      "J": 39,
      "K": 40,
      "L": 41,
      "M": 42,
      "N": 43,
      "O": 44,
      "P": 45,
      "Q": 46,
      "R": 47,
      "S": 48,
      "T": 49,
      "U": 50,
      "V": 51,
      "W": 52,
      "X": 53,
      "Y": 54,
      "Z": 55,
      "a": 56,
      "b": 57,
      "c": 58,
      "d": 59,
      "e": 60,
      "f": 61,
      "g": 62,
      "h": 63,
      "i": 64,
      "j": 65,
      "k": 66,
      "l": 67,
      "m": 68,
      "n": 69,
      "o": 70,
      "p": 71,
      "q": 72,
      "r": 73,
      "s": 74,
      "t": 75,
      "u": 76,
      "v": 77,
      "w": 78,
      "x": 79,
      "y": 80,
      "z": 81,
      "~": 82,
      "£": 83,
      "¥": 84,
      "°": 85,
      "²": 86,
      "Â": 87,
      "â": 88,
      "ã": 89,
      "Ċ": 90,
      "č": 91,
      "Ġ": 92,
      "Ģ": 93,
      "Ĥ": 94,
      "ĵ": 95,
      "Ķ": 96,
      "ĺ": 97,
      "Ļ": 98,
      "ľ": 99,
      "Ŀ": 100,
      "Ġt": 101,
      "Ġ.": 102,
      "Ġ@": 103,
      "Ġa": 104,
      "ou": 105,
      "he": 106,
      "in": 107,
      "Ġs": 108,
      "re": 109,
      "ĠI": 110,
      "Ġ,": 111,
      "ha": 112,
      "Ġw": 113,
      "Ġy": 114,
      "Ġyou": 115,
      "Ġthe": 116,
      "Ġm": 117,
      "Ġc": 118,
      "Ġ?": 119,
      "on": 120,
      "Ġi": 121,
      "Ġb": 122,
      "ll": 123,
      "er": 124,
      "Ġto": 125,
      "Ġf": 126,
      "Ġd": 127,
      "or": 128,
      "an": 129,
      "Ġl": 130,
      "ing": 131,
      "Ġp": 132,
      "es": 133,
      "Ġg": 134,
      "hat": 135,
      "ve": 136,
      "nd": 137,
      "et": 138,
      "Ġn": 139,
      "Ġit": 140,
      "ow": 141,
      "om": 142,
      "ĠT": 143,
      "ea": 144,
      "ĠW": 145,
      "it": 146,
      "ke": 147,
      "se": 148,
      "Ġo": 149,
      "Ġha": 150,
      "st": 151,
      "Ġth": 152,
      "en": 153,
      "ay": 154,
      "Ġis": 155,
      "ar": 156,
      "Ġon": 157,
      "oo": 158,
      "ĠY": 159,
      "'s": 160,
      "Ġand": 161,
      "is": 162,
      "Ġin": 163,
      "ic": 164,
      "Ġof": 165,
      "Ġfor": 166,
      "čĊ": 167,
      "ĠčĊ": 168,
      "at": 169,
      "le": 170,
      "ld": 171,
      "ot": 172,
      "âĢ": 173,
      "ĠâĢ": 174,
      "Ġhave": 175,
      "ed": 176,
      "ĠâĢĻ": 177,
      "Ġdo": 178,
      "gh": 179,
      "ut": 180,
      "Ġre": 181,
      "Ġhe": 182,
      "Ġli": 183,
      "Ġbe": 184,
      "Ġme": 185,
      "Ġh": 186,
      "ould": 187,
      "Ġthat": 188,
      "Ġwe": 189,
      "ĠH": 190,
      "ri": 191,
      "ght": 192,
      "Ġ!": 193,
      "ĠO": 194,
      "ver": 195,
      "'t": 196,
      "Ġcan": 197,
      "ome": 198,
      "Ġare": 199,
      "Ġe": 200,
      "ĠA": 201,
      "Ġst": 202,
      "ir": 203,
      "out": 204,
      "Ġlike": 205,
      "ĠS": 206,
      "Ġyour": 207,
      "ĠIt": 208,
      "ch": 209,
      "Ġu": 210,
      "al": 211,
      "all": 212,
      "ro": 213,
      "Ġne": 214,
      "ill": 215,
      "id": 216,
      "Ġan": 217,
      "ell": 218,
      "ĠThe": 219,
      "Ġgo": 220,
      "Ġthis": 221,
      "ake": 222,
      "as": 223,
      "ĠYou": 224,
      "ĠC": 225,
      "Ġk": 226,
      "han": 227,
      "Ġpl": 228,
      "ad": 229,
      "ood": 230,
      "ent": 231,
      "ant": 232,
      "Ġmy": 233,
      "Ġget": 234,
      "ly": 235,
      "ĠD": 236,
      "ĠN": 237,
      "ac": 238,
      "ee": 239,
      "ĠWhat": 240,
      "ĠYes": 241,
      "ith": 242,
      "ook": 243,
      "ust": 244,
      "ry": 245,
      "ĠM": 246,
      "ink": 247,
      "me": 248,
      "Ġsh": 249,
      "Ġwith": 250,
      "Ġone": 251,
      "Ġab": 252,
      "Ġat": 253,
      "'ll": 254,
      "ion": 255,
      "ter": 256,
      "'m": 257,
      "ease": 258,
      "Ġbu": 259,
      "Ġdon": 260,
      "ĠB": 261,
      "Ġso": 262,
      "Ġj": 263,
      "Ġsome": 264,
      "Ġabout": 265,
      "ur": 266,
      "Ġwill": 267,
      "very": 268,
      "ure": 269,
      "our": 270,
      "Ġthere": 271,
      "Ġwant": 272,
      "hank": 273,
      "th": 274,
      "Ġthink": 275,
      "right": 276,
      "ĠThat": 277,
      "op": 278,
      "ally": 279,
      "Ġnot": 280,
      "ind": 281,
      "ĠHow": 282,
      "Ġkn": 283,
      "ra": 284,
      "Ġor": 285,
      "ble": 286,
      "ec": 287,
      "ice": 288,
      "Ġknow": 289,
      "ĠNo": 290,
      "Ġtake": 291,
      "Ġplease": 292,
      "Ġright": 293,
      "Ġmu": 294,
      "Ġbut": 295,
      "ore": 296,
      "ere": 297,
      "Ġany": 298,
      "il": 299,
      "Ġlook": 300,
      "Ġsee": 301,
      "Ġhere": 302,
      "Ġwould": 303,
      "Ġneed": 304,
      "ce": 305,
      "Ġwhat": 306,
      "her": 307,
      "ĠL": 308,
      "Ġmuch": 309,
      "ĠThank": 310,
      "ĠWe": 311,
      "Ġjust": 312,
      "ge": 313,
      "ive": 314,
      "ight": 315,
      "Ġgood": 316,
      "Ġall": 317,
      "Ġco": 318,
      "ĠOh": 319,
      "ine": 320,
      "Ġal": 321,
      "ear": 322,
      "Ġti": 323,
      "ast": 324,
      "ĠWell": 325,
      "Ġas": 326,
      "ĠDo": 327,
      "am": 328,
      "nt": 329,
      "Ġwas": 330,
      "Ġvery": 331,
      "Ġsu": 332,
      "art": 333,
      "Ġtoo": 334,
      "pp": 335,
      "Ġex": 336,
      "lp": 337,
      "one": 338,
      "Ġup": 339,
      "ul": 340,
      "ack": 341,
      "Ġpro": 342,
      "Ġhelp": 343,
      "Ġsp": 344,
      "ff": 345,
      "ĠP": 346,
      "Ġout": 347,
      "ound": 348,
      "ĠG": 349,
      "Ġwh": 350,
      "ong": 351,
      "hen": 352,
      "here": 353,
      "ain": 354,
      "Ġif": 355,
      "est": 356,
      "Ġthey": 357,
      "Ġgoing": 358,
      "Ġtime": 359,
      "Ġsa": 360,
      "qu": 361,
      "day": 362,
      "Ġreally": 363,
      "eat": 364,
      "ck": 365,
      "Ġfr": 366,
      "Ġwor": 367,
      "Ġcar": 368,
      "Ġr": 369,
      "ĠBut": 370,
      "um": 371,
      "Ġnow": 372,
      "'re": 373,
      "el": 374,
      "and": 375,
      "ig": 376,
      "Ġshould": 377,
      "Ġcom": 378,
      "thing": 379,
      "Ġro": 380,
      "ĠOK": 381,
      "im": 382,
      "Ġsir": 383,
      "Ġch": 384,
      "ers": 385,
      "hing": 386,
      "ĠF": 387,
      "Ġam": 388,
      "'d": 389,
      "end": 390,
      "ĠCan": 391,
      "ment": 392,
      "Ġthem": 393,
      "Ġbuy": 394,
      "ess": 395,
      "ate": 396,
      "Ġ1": 397,
      "Ġlo": 398,
      "Ġdid": 399,
      "ite": 400,
      "ĠWh": 401,
      "ick": 402,
      "un": 403,
      "ĠTh": 404,
      "Ġcl": 405,
      "ep": 406,
      "ĠLet": 407,
      "ct": 408,
      "Ġmake": 409,
      "ning": 410,
      "own": 411,
      "reat": 412,
      "king": 413,
      "ĠHere": 414,
      "Ġ..": 415,
      "ĠIs": 416,
      "Ġhow": 417,
      "omet": 418,
      "Ġbus": 419,
      "Ġfrom": 420,
      "use": 421,
      "orry": 422,
      "Ġmore": 423,
      "Ġaf": 424,
      "Ġche": 425,
      "ĠJ": 426,
      "Ġ...": 427,
      "Ġoff": 428,
      "Ġtw": 429,
      "ation": 430,
      "way": 431,
      "Ġno": 432,
      "Ġnew": 433,
      "able": 434,
      "der": 435,
      "res": 436,
      "ft": 437,
      "Ġqu": 438,
      "Ġmo": 439,
      "Ġgot": 440,
      "ĠAnd": 441,
      "Ġday": 442,
      "ĠR": 443,
      "ap": 444,
      "Ġpr": 445,
      "Ġthen": 446,
      "ĠThis": 447,
      "are": 448,
      "Ġsomet": 449,
      "ous": 450,
      "ort": 451,
      "so": 452,
      "Ġback": 453,
      "Ġdi": 454,
      "ree": 455,
      "urn": 456,
      "Ġtry": 457,
      "Ġour": 458,
      "Ġcon": 459,
      "ving": 460,
      "Ġdoes": 461,
      "ĠSure": 462,
      "Ġover": 463,
      "Ġus": 464,
      "itt": 465,
      "'ve": 466,
      "ĠOk": 467,
      "blem": 468,
      "Ġproblem": 469,
      "Ġcall": 470,
      "ber": 471,
      "Ġll": 472,
      "Ġcould": 473,
      "Ġbr": 474,
      "ew": 475,
      "Ġway": 476,
      "ĠE": 477,
      "Ġmin": 478,
      "ven": 479,
      "Ġman": 480,
      "Ġma": 481,
      "iz": 482,
      "Ġhas": 483,
      "Ġv": 484,
      "Ġsomething": 485,
      "red": 486,
      "ĠThey": 487,
      "Ġwhen": 488,
      "Ġonly": 489,
      "Ġfind": 490,
      "ect": 491,
      "Ġby": 492,
      "irst": 493,
      "Ġsure": 494,
      "ough": 495,
      "Ġfood": 496,
      "ĠThere": 497,
      "Ġtell": 498,
      "Ġcome": 499,
      "Ġlot": 500,
      "Ġuse": 501,
      "Ġ$": 502,
      "etter": 503,
      "ard": 504,
      "Ġminut": 505,
      "Ġ2": 506,
      "Ġint": 507,
      "lf": 508,
      "ose": 509,
      "Ġeat": 510,
      "Ġtwo": 511,
      "Ġkind": 512,
      "Ġlong": 513,
      "Ġtoday": 514,
      "ich": 515,
      "Ġanything": 516,
      "Ġpay": 517,
      "Ġar": 518,
      "Ġthing": 519,
      "00": 520,
      "ĠThanks": 521,
      "Ġsorry": 522,
      "ish": 523,
      "ty": 524,
      "ouse": 525,
      "ait": 526,
      "Ġpre": 527,
      "ater": 528,
      "Ġroom": 529,
      "Ġwon": 530,
      "Ġag": 531,
      "Ġalso": 532,
      "ity": 533,
      "os": 534,
      "eah": 535,
      "Ġshe": 536,
      "ittle": 537,
      "artment": 538,
      "ab": 539,
      "Ġtr": 540,
      "Ġevery": 541,
      "us": 542,
      "Ġlittle": 543,
      "Ġen": 544,
      "ĠCh": 545,
      "Ġher": 546,
      "ĠMay": 547,
      "Ġgreat": 548,
      "ady": 549,
      "Ġcour": 550,
      "Ġgive": 551,
      "Ġwell": 552,
      "ol": 553,
      "Ġap": 554,
      "ĠIf": 555,
      "Ġchan": 556,
      "Ġlet": 557,
      "ace": 558,
      "Ġbeen": 559,
      "ĠV": 560,
      "Ġbetter": 561,
      "Ġfl": 562,
      "ful": 563,
      "ĠAre": 564,
      "Ġapp": 565,
      "eas": 566,
      "ag": 567,
      "ounds": 568,
      "Ġad": 569,
      "Ġhome": 570,
      "ĠWhy": 571,
      "Ġnice": 572,
      "ide": 573,
      "ass": 574,
      "Ġcomp": 575,
      "be": 576,
      "xt": 577,
      "ĠWould": 578,
      "Ġcourse": 579,
      "Ġhouse": 580,
      "cuse": 581,
      "Ġ'": 582,
      "llar": 583,
      "Ġfirst": 584,
      "ie": 585,
      "Ġafter": 586,
      "Ġsm": 587,
      "Ġwee": 588,
      "ought": 589,
      "ies": 590,
      "ually": 591,
      "ĠAll": 592,
      "ĠSo": 593,
      "ese": 594,
      "ĠHe": 595,
      "pen": 596,
      "Ġlooking": 597,
      "oney": 598,
      "row": 599,
      "act": 600,
      "Ġorder": 601,
      "ial": 602,
      "Ġdollar": 603,
      "xcuse": 604,
      "ame": 605,
      "Ġwhere": 606,
      "Ġel": 607,
      "Ġpe": 608,
      "ak": 609,
      "Ġke": 610,
      "Ġapartment": 611,
      "Ġmad": 612,
      "Ġfri": 613,
      "ĠDon": 614,
      "ip": 615,
      "ther": 616,
      "Ġdown": 617,
      "ool": 618,
      "Ġmay": 619,
      "Ġelse": 620,
      "Ġbl": 621,
      "ave": 622,
      "ert": 623,
      "ĠYeah": 624,
      "get": 625,
      "ist": 626,
      "Ġminutes": 627,
      "ue": 628,
      "ress": 629,
      "hes": 630,
      "age": 631,
      "Ġper": 632,
      "ĠChin": 633,
      "Excuse": 634,
      "Ġmon": 635,
      "atch": 636,
      "ople": 637,
      "orning": 638,
      "ĠWhere": 639,
      "other": 640,
      "ark": 641,
      "les": 642,
      "Ġgu": 643,
      "What": 644,
      "rink": 645,
      "Ġthank": 646,
      "Ġhad": 647,
      "ello": 648,
      "Ġsay": 649,
      "Ġput": 650,
      "Ġmorning": 651,
      "Ġwork": 652,
      "Ġ3": 653,
      "Ġdollars": 654,
      "ud": 655,
      "Ġnext": 656,
      "ĠMy": 657,
      "gg": 658,
      "Ġshop": 659,
      "Ġid": 660,
      "ise": 661,
      "Ġdri": 662,
      "Ġmonth": 663,
      "fore": 664,
      "Ġdrink": 665,
      "ile": 666,
      "Ġrec": 667,
      "Ġle": 668,
      "ĠPl": 669,
      "Ġpeople": 670,
      "mp": 671,
      "Ġwait": 672,
      "ize": 673,
      "Ġtra": 674,
      "Ġwr": 675,
      "Ġmany": 676,
      "Ġhim": 677,
      "ĠCould": 678,
      "ner": 679,
      "uan": 680,
      "Ġother": 681,
      "Ġmean": 682,
      "Ġthese": 683,
      "Ġstop": 684,
      "Ġweek": 685,
      "Ġse": 686,
      "Ġbefore": 687,
      "Ġyes": 688,
      "umber": 689,
      "ix": 690,
      "ny": 691,
      "ost": 692,
      "Ġcou": 693,
      "Ġlea": 694,
      "Ġlove": 695,
      "ĠJust": 696,
      "und": 697,
      "Ġcol": 698,
      "Ġser": 699,
      "eel": 700,
      "Can": 701,
      "ĠPlease": 702,
      "Ġfew": 703,
      "ĠThen": 704,
      "Ġidea": 705,
      "Ġcheck": 706,
      "Ġsha": 707,
      "Ġshow": 708,
      "ash": 709,
      "Ġplay": 710,
      "Ġchange": 711,
      "Ġnumber": 712,
      "Ġhour": 713,
      "Ġturn": 714,
      "hed": 715,
      "Ġdidn": 716,
      "Ġmoney": 717,
      "ting": 718,
      "Ġbig": 719,
      "Ġprice": 720,
      "av": 721,
      "Ġlast": 722,
      "ger": 723,
      "alk": 724,
      "air": 725,
      "ĠOkay": 726,
      "Ġdis": 727,
      "Ġthings": 728,
      "Ġbre": 729,
      "ign": 730,
      "Ġthan": 731,
      "Ġph": 732,
      "room": 733,
      "ĠNot": 734,
      "Ġcost": 735,
      "Ġstart": 736,
      "Hello": 737,
      "Ġcook": 738,
      "Ġstill": 739,
      "Ġcard": 740,
      "Ġdoesn": 741,
      "Ġtea": 742,
      "eal": 743,
      "raid": 744,
      "ular": 745,
      "Ġafraid": 746,
      "cc": 747,
      "self": 748,
      "ĠGood": 749,
      "Ġdiff": 750,
      "come": 751,
      "ked": 752,
      "Ġfeel": 753,
      "Ġnever": 754,
      "Ġwere": 755,
      "pens": 756,
      "Ġfine": 757,
      "Ġsw": 758,
      "Ġsounds": 759,
      "Ġmust": 760,
      "Ġspec": 761,
      "ond": 762,
      "Ġtom": 763,
      "ord": 764,
      "igh": 765,
      "Ġlooks": 766,
      "Ġkeep": 767,
      "ail": 768,
      "ause": 769,
      "Ġbo": 770,
      "ways": 771,
      "Ġmade": 772,
      "Ġcolor": 773,
      "ĠOf": 774,
      "Ġhapp": 775,
      "Ġready": 776,
      "ĠSt": 777,
      "ĠChinese": 778,
      "ild": 779,
      "Ġalways": 780,
      "lly": 781,
      "orrow": 782,
      "Ġun": 783,
      "Ġ5": 784,
      "Ġtable": 785,
      "Ġthree": 786,
      "Ġrent": 787,
      "Ġagain": 788,
      "mm": 789,
      "Ġdin": 790,
      "eak": 791,
      "Ġinto": 792,
      "per": 793,
      "chool": 794,
      "Ġhar": 795,
      "ĠShe": 796,
      "aper": 797,
      "Ġmind": 798,
      "ĠVe": 799,
      "ift": 800,
      "pensive": 801,
      "int": 802,
      "ans": 803,
      "ance": 804,
      "Ġmom": 805,
      "Ġaround": 806,
      "Ġfriend": 807,
      "oes": 808,
      "ping": 809,
      "ĠU": 810,
      "Ġschool": 811,
      "Ġcare": 812,
      "if": 813,
      "reet": 814,
      "Ġbot": 815,
      "Ġleft": 816,
      "Ġspecial": 817,
      "ms": 818,
      "Ġfin": 819,
      "ĠWhen": 820,
      "Ġold": 821,
      "Ġhot": 822,
      "ents": 823,
      "ious": 824,
      "Ġyear": 825,
      "Ġbit": 826,
      "Ġbest": 827,
      "Ġquite": 828,
      "Ġsize": 829,
      "ffee": 830,
      "ock": 831,
      "ĠK": 832,
      "Ġsal": 833,
      "ken": 834,
      "Ġisn": 835,
      "Ġred": 836,
      "Ġexpensive": 837,
      "Ġbring": 838,
      "ian": 839,
      "Ġname": 840,
      "Ġwho": 841,
      "ertain": 842,
      "up": 843,
      "har": 844,
      "nder": 845,
      "ĠHave": 846,
      "Ġsuit": 847,
      "Ġve": 848,
      "How": 849,
      "ves": 850,
      "Ġsk": 851,
      "Ġbed": 852,
      "Ġpart": 853,
      "Ġplace": 854,
      "erest": 855,
      "Ġtomorrow": 856,
      "ax": 857,
      "ĠNow": 858,
      "Ġsame": 859,
      "Ġphone": 860,
      "Ġyuan": 861,
      "Ġdel": 862,
      "Ġwrong": 863,
      "ng": 864,
      "ĠDid": 865,
      "Ġwhy": 866,
      "pt": 867,
      "Ġcle": 868,
      "irt": 869,
      "Ġmight": 870,
      "ary": 871,
      "Ġstore": 872,
      "Ġunder": 873,
      "Ġanother": 874,
      "Ġcoffee": 875,
      "Ġinterest": 876,
      "Ġbad": 877,
      "Ġhand": 878,
      "fer": 879,
      "icket": 880,
      "Ġdiffere": 881,
      "Ġdinner": 882,
      "Ġrest": 883,
      "ĠAl": 884,
      "Ġask": 885,
      "Ġmost": 886,
      "Ġhard": 887,
      "cl": 888,
      "ple": 889,
      "Ġdec": 890,
      "Ġgl": 891,
      "Ġlight": 892,
      "Ġclot": 893,
      "Ġenough": 894,
      "Good": 895,
      "Ġticket": 896,
      "iss": 897,
      "Ġrece": 898,
      "ĠOn": 899,
      "Ġbec": 900,
      "Ġsmall": 901,
      "Ġwhich": 902,
      "mend": 903,
      "ĠMaybe": 904,
      "ps": 905,
      "Ġsc": 906,
      "Ġins": 907,
      "Ġsale": 908,
      "Ġdays": 909,
      "Ġton": 910,
      "ount": 911,
      "Ġbought": 912,
      "Ġlater": 913,
      "ommend": 914,
      "ertainly": 915,
      "dy": 916,
      "Ġdep": 917,
      "Ġrecommend": 918,
      "Ġres": 919,
      "Ġeven": 920,
      "Ġeas": 921,
      "Ġbea": 922,
      "ĠAny": 923,
      "ĠSorry": 924,
      "Ġrun": 925,
      "ctually": 926,
      "ĠIn": 927,
      "ten": 928,
      "Ġtast": 929,
      "Ġfive": 930,
      "vice": 931,
      "Ġwatch": 932,
      "Ġbook": 933,
      "ĠWill": 934,
      "Ġdoing": 935,
      "Ġcomput": 936,
      "Ġshopping": 937,
      "Ġear": 938,
      "Ġtri": 939,
      "Ġwhile": 940,
      "ĠRea": 941,
      "uck": 942,
      "Ġfree": 943,
      "Ġlate": 944,
      "Ġusually": 945,
      "Ġwonder": 946,
      "Ġ6": 947,
      "Ġten": 948,
      "Ġsend": 949,
      "Ġca": 950,
      "Ġclean": 951,
      "Ġtonight": 952,
      "lcome": 953,
      "Ġsec": 954,
      "Ġyet": 955,
      "ition": 956,
      "Ġthose": 957,
      "Ġnear": 958,
      "tern": 959,
      "Ġworry": 960,
      "Do": 961,
      "ef": 962,
      "oon": 963,
      "Ġ4": 964,
      "Ġnight": 965,
      "Ġlist": 966,
      "Ġadd": 967,
      "Ġperf": 968,
      "Ġbecause": 969,
      "ye": 970,
      "Ġbeaut": 971,
      "Ġwater": 972,
      "Ġcut": 973,
      "Ġhaven": 974,
      "enty": 975,
      "ĠReally": 976,
      "oor": 977,
      "Ġtheir": 978,
      "Ġimp": 979,
      "orm": 980,
      "Ġpick": 981,
      "Ġhis": 982,
      "Ġcho": 983,
      "ery": 984,
      "ction": 985,
      "Ġcomputer": 986,
      "Ġsign": 987,
      "ĠYour": 988,
      "Ġthanks": 989,
      "Ġacc": 990,
      "ĠWhich": 991,
      "Ġair": 992,
      "Ġsl": 993,
      "itc": 994,
      "Ġsoon": 995,
      "ĠLook": 996,
      "Ġguess": 997,
      "Ġri": 998,
      "Ġchar": 999,
      "Ġjo": 1000,
      "Ġ10": 1001,
      "Ġpret": 1002,
      "Ġclothes": 1003,
      "mber": 1004,
      "Ġhaving": 1005,
      "icken": 1006,
      "ated": 1007,
      "Ġstay": 1008,
      "Ġgetting": 1009,
      "Ġsell": 1010,
      "ork": 1011,
      "Ġcont": 1012,
      "Ġbreak": 1013,
      "Ġset": 1014,
      "ict": 1015,
      "undred": 1016,
      "May": 1017,
      "Ġea": 1018,
      "oup": 1019,
      "Ġhair": 1020,
      "Ġhundred": 1021,
      "Ġ8": 1022,
      "Ġte": 1023,
      "Ġdress": 1024,
      "Ġwelcome": 1025,
      "ĠMr": 1026,
      "Ġsaid": 1027,
      "Ġhappen": 1028,
      "Ġmoment": 1029,
      "aur": 1030,
      "du": 1031,
      "ily": 1032,
      "pe": 1033,
      "Ġpar": 1034,
      "Ġhigh": 1035,
      "Ġsty": 1036,
      "Ġstud": 1037,
      "ffic": 1038,
      "Ġeverything": 1039,
      "avor": 1040,
      "Ġveget": 1041,
      "Ġpretty": 1042,
      "Ġstreet": 1043,
      "member": 1044,
      "Ġmil": 1045,
      "Ġdes": 1046,
      "Ġthought": 1047,
      "Ġdone": 1048,
      "mer": 1049,
      "ready": 1050,
      "Ġwear": 1051,
      "Ġwalk": 1052,
      "Ġreal": 1053,
      "Ġalready": 1054,
      "ĠGo": 1055,
      "Ġchicken": 1056,
      "Ġmove": 1057,
      "Ġdifferent": 1058,
      "Ġown": 1059,
      "Ġwine": 1060,
      "Ġfar": 1061,
      "Ġok": 1062,
      "ather": 1063,
      "iful": 1064,
      "oy": 1065,
      "Ġra": 1066,
      "Ġgr": 1067,
      "Ġhalf": 1068,
      "Ġeach": 1069,
      "It": 1070,
      "ren": 1071,
      "Ġsupp": 1072,
      "Ġdrive": 1073,
      "Ġbeautiful": 1074,
      "Hi": 1075,
      "de": 1076,
      "Ġsoup": 1077,
      "Ġbat": 1078,
      "vers": 1079,
      "Ġoffer": 1080,
      "Ġprefer": 1081,
      "noon": 1082,
      "anc": 1083,
      "Ġlar": 1084,
      "Ġeve": 1085,
      "alth": 1086,
      "ĠCome": 1087,
      "Ġafternoon": 1088,
      "Ġtrain": 1089,
      "aurant": 1090,
      "rough": 1091,
      "iec": 1092,
      "Ġwind": 1093,
      "Ġmeat": 1094,
      "Ġfit": 1095,
      "Ġpair": 1096,
      "Ġref": 1097,
      "Ġreg": 1098,
      "Ġhop": 1099,
      "itchen": 1100,
      "bo": 1101,
      "Ġfour": 1102,
      "Ġthrough": 1103,
      "Ġkitchen": 1104,
      "ntil": 1105,
      "uit": 1106,
      "oose": 1107,
      "Ġhealth": 1108,
      "Ġprodu": 1109,
      "Ġtraffic": 1110,
      "og": 1111,
      "Ġaway": 1112,
      "Ġbar": 1113,
      "stand": 1114,
      "Ġmen": 1115,
      "ons": 1116,
      "Ġpop": 1117,
      "ult": 1118,
      "ĠGreat": 1119,
      "ection": 1120,
      "ipt": 1121,
      "erc": 1122,
      "Ġpass": 1123,
      "Ġoften": 1124,
      "Ġreceipt": 1125,
      "The": 1126,
      "Ġbel": 1127,
      "Ġcomes": 1128,
      "Ġevening": 1129,
      "Ġrep": 1130,
      "You": 1131,
      "ible": 1132,
      "Ġmat": 1133,
      "Ġdog": 1134,
      "Ġstation": 1135,
      "ĠCertainly": 1136,
      "Ġkid": 1137,
      "Ġcoming": 1138,
      "Ġclass": 1139,
      "Ġfloor": 1140,
      "arket": 1141,
      "oint": 1142,
      "ub": 1143,
      "Ġ7": 1144,
      "Ġtax": 1145,
      "Ġfavor": 1146,
      "Ġuntil": 1147,
      "Ġminute": 1148,
      "ieve": 1149,
      "Ġunderstand": 1150,
      "Ġrestaurant": 1151,
      "ia": 1152,
      "kes": 1153,
      "line": 1154,
      "ream": 1155,
      "ange": 1156,
      "eter": 1157,
      "ĠWow": 1158,
      "Ġsub": 1159,
      "ĠTV": 1160,
      "Ġret": 1161,
      "irty": 1162,
      "Ġext": 1163,
      "Ġused": 1164,
      "ably": 1165,
      "sed": 1166,
      "Ġsuch": 1167,
      "Ġexc": 1168,
      "ables": 1169,
      "Ġleave": 1170,
      "Ġsecond": 1171,
      "Ġcash": 1172,
      "Ġfu": 1173,
      "ank": 1174,
      "Ġremember": 1175,
      "Ġpost": 1176,
      "Ġexerc": 1177,
      "Ġspend": 1178,
      "ĠFor": 1179,
      "redit": 1180,
      "oss": 1181,
      "akes": 1182,
      "Ġmaybe": 1183,
      "Ġbill": 1184,
      "Ġfast": 1185,
      "Ġfix": 1186,
      "Ġpack": 1187,
      "ence": 1188,
      "leep": 1189,
      "Ġstra": 1190,
      "Ġroad": 1191,
      "Ġeasy": 1192,
      "Ġperfect": 1193,
      "ever": 1194,
      "ium": 1195,
      "Ġcredit": 1196,
      "Ġread": 1197,
      "Ġhur": 1198,
      "Ġegg": 1199,
      "Ġoffice": 1200,
      "Ġglad": 1201,
      "Ġfound": 1202,
      "Ġfurn": 1203,
      "Ġpers": 1204,
      "Ġgift": 1205,
      "Ġones": 1206,
      "ator": 1207,
      "Ġplan": 1208,
      "Ġatt": 1209,
      "Ġthinking": 1210,
      "Ġservice": 1211,
      "Ġtaste": 1212,
      "Ġcharge": 1213,
      "ely": 1214,
      "reen": 1215,
      "Ġcr": 1216,
      "Ġcor": 1217,
      "Ġfam": 1218,
      "Ġlear": 1219,
      "ered": 1220,
      "imes": 1221,
      "Ġchoose": 1222,
      "ĠFine": 1223,
      "Ġlost": 1224,
      "Ġbedroom": 1225,
      "Ġwindow": 1226,
      "Would": 1227,
      "bably": 1228,
      "old": 1229,
      "uff": 1230,
      "Ġmiss": 1231,
      "ings": 1232,
      "ions": 1233,
      "Ġsomeone": 1234,
      "Ġfruit": 1235,
      "Ġchild": 1236,
      "resh": 1237,
      "easure": 1238,
      "Ġstyle": 1239,
      "az": 1240,
      "Ġstr": 1241,
      "Ġsugg": 1242,
      "Ġexp": 1243,
      "actly": 1244,
      "Ġsuggest": 1245,
      "Ġsix": 1246,
      "Ġbag": 1247,
      "ished": 1248,
      "Ġstand": 1249,
      "terday": 1250,
      "Ġrather": 1251,
      "unch": 1252,
      "Ġmadam": 1253,
      "ĠAnything": 1254,
      "Ġlarge": 1255,
      "eet": 1256,
      "lic": 1257,
      "Ġ)": 1258,
      "Ġside": 1259,
      "ang": 1260,
      "Ġpain": 1261,
      "Ġpaper": 1262,
      "Ġpiec": 1263,
      "Ġliving": 1264,
      "Ġmyself": 1265,
      "Ġshoes": 1266,
      "ĠRight": 1267,
      "Ġfriends": 1268,
      "ife": 1269,
      "Ġbott": 1270,
      "Ġsuppose": 1271,
      "ey": 1272,
      "een": 1273,
      "Ġseat": 1274,
      "Ġfresh": 1275,
      "Ġpan": 1276,
      "Ġopen": 1277,
      "Ġinst": 1278,
      "Ġyourself": 1279,
      "Ġshirt": 1280,
      "ĠBe": 1281,
      "ousand": 1282,
      "Ġyesterday": 1283,
      "Ġyears": 1284,
      "clud": 1285,
      "50": 1286,
      "ient": 1287,
      "most": 1288,
      "Ġcur": 1289,
      "Ġbro": 1290,
      "Ġweight": 1291,
      "ĠBy": 1292,
      "Ġspeak": 1293,
      "Ġhours": 1294,
      "Ġboth": 1295,
      "Ġpopular": 1296,
      "oh": 1297,
      "ph": 1298,
      "Ġav": 1299,
      "Ġheard": 1300,
      "alking": 1301,
      "Ġwhite": 1302,
      "Ġprom": 1303,
      "Ġdisc": 1304,
      "Ġhope": 1305,
      "Th": 1306,
      "Ġ(": 1307,
      "Ġsit": 1308,
      "Ġinclud": 1309,
      "icy": 1310,
      "ices": 1311,
      "Ġdelic": 1312,
      "Ġmenu": 1313,
      "Are": 1314,
      "joy": 1315,
      "let": 1316,
      "Ġfish": 1317,
      "Ġlive": 1318,
      "Ġbeef": 1319,
      "Ġele": 1320,
      "ality": 1321,
      "Ġseems": 1322,
      "Ġago": 1323,
      "Ġsalad": 1324,
      "meric": 1325,
      "Ġbelieve": 1326,
      "fast": 1327,
      "ys": 1328,
      "Ġ9": 1329,
      "Ġtold": 1330,
      "Ġthousand": 1331,
      "Ġonline": 1332,
      "ĠSh": 1333,
      "ung": 1334,
      "Ġtrue": 1335,
      "Is": 1336,
      "ding": 1337,
      "ire": 1338,
      "na": 1339,
      "oll": 1340,
      "Ġ\"": 1341,
      "Ġ-": 1342,
      "Ġter": 1343,
      "ince": 1344,
      "Ġmeal": 1345,
      "erv": 1346,
      "Ġfift": 1347,
      "ade": 1348,
      "ĠDad": 1349,
      "Ġtwenty": 1350,
      "Ġproblems": 1351,
      "Ġaff": 1352,
      "Ġgir": 1353,
      "ital": 1354,
      "Ġbeer": 1355,
      "Ġaren": 1356,
      "ĠMom": 1357,
      "cept": 1358,
      "Ġloc": 1359,
      "Ġcalled": 1360,
      "Ġblack": 1361,
      "gether": 1362,
      "Ġperson": 1363,
      "Ġline": 1364,
      "Ġpet": 1365,
      "ĠAb": 1366,
      "Ġ20": 1367,
      "ĠChina": 1368,
      "Ġextra": 1369,
      "Wh": 1370,
      "au": 1371,
      "ss": 1372,
      "Ġcatch": 1373,
      "vel": 1374,
      "ead": 1375,
      "ĠWait": 1376,
      "Ġthough": 1377,
      "Ġform": 1378,
      "Ġmail": 1379,
      "Ġbreakfast": 1380,
      "Ġvegetables": 1381,
      "Ġbath": 1382,
      "form": 1383,
      "ier": 1384,
      "iate": 1385,
      "Ġac": 1386,
      "Ġactually": 1387,
      "Ġcup": 1388,
      "Ġfun": 1389,
      "ved": 1390,
      "Ġever": 1391,
      "Ġstuff": 1392,
      "ĠSee": 1393,
      "ides": 1394,
      "Ġmus": 1395,
      "Ġprobably": 1396,
      "Ġdiet": 1397,
      "ush": 1398,
      "ĠVery": 1399,
      "Ġbox": 1400,
      "Ġinterested": 1401,
      "This": 1402,
      "em": 1403,
      "Ġbir": 1404,
      "Ġpur": 1405,
      "ower": 1406,
      "ĠAmeric": 1407,
      "ĠDoes": 1408,
      "Ġenjoy": 1409,
      "Ġcooking": 1410,
      "ĠAlright": 1411,
      "ĠOne": 1412,
      "Ġimport": 1413,
      "Ġreturn": 1414,
      "Ġstraight": 1415,
      "Ġsleep": 1416,
      "ither": 1417,
      "Ġshort": 1418,
      "Ġbuild": 1419,
      "essert": 1420,
      "ĠWho": 1421,
      "Ġfavorite": 1422,
      "iet": 1423,
      "Ġtalk": 1424,
      "Ġwife": 1425,
      "Ġdeal": 1426,
      "Ġdessert": 1427,
      "any": 1428,
      "ĠEvery": 1429,
      "We": 1430,
      "Ġwar": 1431,
      "Ġfill": 1432,
      "Ġthirty": 1433,
      "atur": 1434,
      "Ġsteak": 1435,
      "Ġsoft": 1436,
      "Ġalmost": 1437,
      "Ġcount": 1438,
      "ashion": 1439,
      "Ġmatter": 1440,
      "Ġexercise": 1441,
      "head": 1442,
      "Ġwent": 1443,
      "Ġtow": 1444,
      "Ġlunch": 1445,
      "ĠTo": 1446,
      "ĠGet": 1447,
      "Ġquick": 1448,
      "Ġquality": 1449,
      "aking": 1450,
      "ike": 1451,
      "where": 1452,
      "Ġhat": 1453,
      "ins": 1454,
      "haps": 1455,
      "Ġcream": 1456,
      "Ġluck": 1457,
      "ense": 1458,
      "Ġhear": 1459,
      "Ġmeet": 1460,
      "eep": 1461,
      "Ġneeds": 1462,
      "Ġcheap": 1463,
      "Ġnews": 1464,
      "Ġsays": 1465,
      "ternet": 1466,
      "ially": 1467,
      "port": 1468,
      "Ġes": 1469,
      "Ġcat": 1470,
      "Ġcents": 1471,
      "Ġlat": 1472,
      "Ġend": 1473,
      "ĠAn": 1474,
      "ĠActually": 1475,
      "Ġexactly": 1476,
      "ĠPer": 1477,
      "Ġclose": 1478,
      "Ġcalling": 1479,
      "Ġcouple": 1480,
      "Ġtried": 1481,
      "Ġmilk": 1482,
      "But": 1483,
      "col": 1484,
      "ric": 1485,
      "ti": 1486,
      "Ġtot": 1487,
      "ating": 1488,
      "ram": 1489,
      "Ġworking": 1490,
      "Ġ50": 1491,
      "Ġhappened": 1492,
      "Ġparking": 1493,
      "ach": 1494,
      "Ġwall": 1495,
      "ĠTw": 1496,
      "iture": 1497,
      "ities": 1498,
      "ates": 1499,
      "Ġeight": 1500,
      "ustom": 1501,
      "Ġcons": 1502,
      "Ġdishes": 1503,
      "Ġhappy": 1504,
      "Ġimportant": 1505,
      "nter": 1506,
      "Ġmess": 1507,
      "Ġbusy": 1508,
      "Ġeating": 1509,
      "Ġdelicious": 1510,
      "ivers": 1511,
      "nce": 1512,
      "ton": 1513,
      "Ġty": 1514,
      "Ġahead": 1515,
      "Ġsing": 1516,
      "Ġpark": 1517,
      "Ġposs": 1518,
      "ooked": 1519,
      "Ġforg": 1520,
      "ĠAs": 1521,
      "Ġbur": 1522,
      "nts": 1523,
      "Ġ15": 1524,
      "Ġbrand": 1525,
      "ngl": 1526,
      "Ġcase": 1527,
      "Ġproduct": 1528,
      "Ġfurniture": 1529,
      "Hey": 1530,
      "ses": 1531,
      "ual": 1532,
      "Ġsim": 1533,
      "Ġcity": 1534,
      "Ġfil": 1535,
      "Ġpot": 1536,
      "eater": 1537,
      "Ġonce": 1538,
      "ĠHi": 1539,
      "ident": 1540,
      "Ġcheaper": 1541,
      "Ġmaking": 1542,
      "Ġdriving": 1543,
      "Ġjob": 1544,
      "Ġpiece": 1545,
      "ohn": 1546,
      "Could": 1547,
      "eed": 1548,
      "mb": 1549,
      "mes": 1550,
      "ob": 1551,
      "iness": 1552,
      "Ġsur": 1553,
      "ont": 1554,
      "Ġice": 1555,
      "Ġdry": 1556,
      "Ġpict": 1557,
      "ĠTake": 1558,
      "kend": 1559,
      "enc": 1560,
      "Ġinform": 1561,
      "Ġrel": 1562,
      "ĠOur": 1563,
      "Ġable": 1564,
      "ures": 1565,
      "Ġsuper": 1566,
      "Ġart": 1567,
      "ages": 1568,
      "Ġweekend": 1569,
      "ĠHey": 1570,
      "Ġ30": 1571,
      "Ġsweater": 1572,
      "Ġfinish": 1573,
      "Ġinteresting": 1574,
      "Ġtaxi": 1575,
      "Ġpackage": 1576,
      "Ġlearn": 1577,
      "Ġpromise": 1578,
      "Ġafford": 1579,
      "fort": 1580,
      "Ġtop": 1581,
      "Ġtogether": 1582,
      "ory": 1583,
      "Ġits": 1584,
      "Ġwash": 1585,
      "Ġsaw": 1586,
      "ĠEngl": 1587,
      "Ġkinds": 1588,
      "Ġsweet": 1589,
      "Ġearly": 1590,
      "Ġchoice": 1591,
      "lut": 1592,
      "side": 1593,
      "ĠSounds": 1594,
      "ided": 1595,
      "thday": 1596,
      "Ġwouldn": 1597,
      "els": 1598,
      "Ġcheese": 1599,
      "Ġtrying": 1600,
      "Ġmach": 1601,
      "Ġskin": 1602,
      "Ġbooks": 1603,
      "Ġaddress": 1604,
      "Ġfull": 1605,
      "Ġavail": 1606,
      "Have": 1607,
      "ai": 1608,
      "ase": 1609,
      "mail": 1610,
      "uce": 1611,
      "Ġtakes": 1612,
      "Ġsn": 1613,
      "Ġmed": 1614,
      "Ġmain": 1615,
      "Ġcent": 1616,
      "Ġdish": 1617,
      "Ġpol": 1618,
      "Ġgreen": 1619,
      "Ġrem": 1620,
      "Ġeither": 1621,
      "Ġju": 1622,
      "solut": 1623,
      "Ġconven": 1624,
      "Ġcounter": 1625,
      "Ġeggs": 1626,
      "Ġbuilding": 1627,
      "ĠEnglish": 1628,
      "Ġavailable": 1629,
      "ience": 1630,
      "ove": 1631,
      "Ġpast": 1632,
      "ĠThese": 1633,
      "Ġgoes": 1634,
      "Ġtimes": 1635,
      "Ġbuying": 1636,
      "Ġ12": 1637,
      "Ġsmo": 1638,
      "Ġseven": 1639,
      "Ġpartic": 1640,
      "Ġterri": 1641,
      "Ġbirthday": 1642,
      "Ġlatest": 1643,
      "Ġtest": 1644,
      "ines": 1645,
      "Ġfashion": 1646,
      "Ġla": 1647,
      "Ġgas": 1648,
      "ical": 1649,
      "ĠAf": 1650,
      "ellent": 1651,
      "ĠNew": 1652,
      "Ġwashing": 1653,
      "Ġexam": 1654,
      "izz": 1655,
      "Ġvar": 1656,
      "Ġtrans": 1657,
      "Ġappoint": 1658,
      "Ġblue": 1659,
      "Ġtele": 1660,
      "Ġhealthy": 1661,
      "Ġhurry": 1662,
      "ollow": 1663,
      "Ġtotal": 1664,
      "Ġpossible": 1665,
      "solutely": 1666,
      "fe": 1667,
      "pec": 1668,
      "work": 1669,
      "zen": 1670,
      "ouble": 1671,
      "Ġmarket": 1672,
      "Ġcam": 1673,
      "ors": 1674,
      "Ġinternet": 1675,
      "ĠHello": 1676,
      "rap": 1677,
      "Ġfront": 1678,
      "Ġsever": 1679,
      "Ġchocol": 1680,
      "gar": 1681,
      "ract": 1682,
      "te": 1683,
      "Ġtalking": 1684,
      "Ġyoung": 1685,
      "Ġoil": 1686,
      "ention": 1687,
      "Ġwanted": 1688,
      "Ġsave": 1689,
      "ĠFri": 1690,
      "itting": 1691,
      "Ġvac": 1692,
      "Ġsupposed": 1693,
      "Ġappointment": 1694,
      "Ġseveral": 1695,
      "iew": 1696,
      "ling": 1697,
      "man": 1698,
      "Ġson": 1699,
      "Ġsince": 1700,
      "Ġless": 1701,
      "ĠAt": 1702,
      "Ġgets": 1703,
      "Ġwithout": 1704,
      "ĠFirst": 1705,
      "Ġbusiness": 1706,
      "ĠJohn": 1707,
      "Ġmov": 1708,
      "Ġmakes": 1709,
      "osit": 1710,
      "Ġwhole": 1711,
      "Ġchildren": 1712,
      "Ġbottle": 1713,
      "Ġbathroom": 1714,
      "ĠPerhaps": 1715,
      "Ġforgot": 1716,
      "pecially": 1717,
      "cha": 1718,
      "Ġent": 1719,
      "rec": 1720,
      "Ġcustom": 1721,
      "Ġbas": 1722,
      "Ġbank": 1723,
      "Ġde": 1724,
      "Ġpounds": 1725,
      "ĠTom": 1726,
      "Ġheav": 1727,
      "Ġpleasure": 1728,
      "ĠMe": 1729,
      "Ġcold": 1730,
      "Ġ100": 1731,
      "Ġwaiting": 1732,
      "Ġokay": 1733,
      "rench": 1734,
      "Ġkids": 1735,
      "Ġparticular": 1736,
      "Ġchocolate": 1737,
      "Ġsand": 1738,
      "Ġspace": 1739,
      "eather": 1740,
      "ations": 1741,
      "Ġcond": 1742,
      "ards": 1743,
      "Ġapprec": 1744,
      "Ġmeans": 1745,
      "Ġstarted": 1746,
      "ĠStreet": 1747,
      "Ġregular": 1748,
      "body": 1749,
      "Ġsubway": 1750,
      "Ġcorner": 1751,
      "Ġdiscount": 1752,
      "ĠAbout": 1753,
      "Ġinformation": 1754,
      "ness": 1755,
      "Ġcake": 1756,
      "Ġbet": 1757,
      "Ġdear": 1758,
      "iting": 1759,
      "Ġforget": 1760,
      "Ġord": 1761,
      "Ġcoll": 1762,
      "Ġtired": 1763,
      "Ġsauce": 1764,
      "Ġworld": 1765,
      "Ġclear": 1766,
      "Ġdire": 1767,
      "ĠEx": 1768,
      "Ġsmell": 1769,
      "Ġleast": 1770,
      "Ġbread": 1771,
      "Ġwonderful": 1772,
      "Ġjuice": 1773,
      "ĠAfter": 1774,
      "cle": 1775,
      "ls": 1776,
      "ware": 1777,
      "Ġsection": 1778,
      "Ġcra": 1779,
      "Ġletter": 1780,
      "Ġpie": 1781,
      "Ġreas": 1782,
      "Ġbeg": 1783,
      "ried": 1784,
      "ĠBr": 1785,
      "Ġseem": 1786,
      "Ġchop": 1787,
      "ments": 1788,
      "Ġmod": 1789,
      "Ġappet": 1790,
      "Ġfried": 1791,
      "Ġshall": 1792,
      "Ġinside": 1793,
      "aught": 1794,
      "Ġcountry": 1795,
      "Ġheavy": 1796,
      "Where": 1797,
      "five": 1798,
      "io": 1799,
      "pet": 1800,
      "sh": 1801,
      "Ġsea": 1802,
      "Ġdro": 1803,
      "esides": 1804,
      "Ġey": 1805,
      "ĠMary": 1806,
      "Ġalong": 1807,
      "pped": 1808,
      "Ġoutside": 1809,
      "Ġquest": 1810,
      "Ġ200": 1811,
      "Ġagree": 1812,
      "osp": 1813,
      "Ġwrite": 1814,
      "Ġdeli": 1815,
      "Ġaccident": 1816,
      "Ġmusic": 1817,
      "Ġespecially": 1818,
      "ĠTwo": 1819,
      "Ġconvenient": 1820,
      "Ġcondition": 1821,
      "Ġappreciate": 1822,
      "bit": 1823,
      "jing": 1824,
      "yst": 1825,
      "Ġ;": 1826,
      "hall": 1827,
      "Ġwin": 1828,
      "Ġyeah": 1829,
      "Ġmine": 1830,
      "Ġfig": 1831,
      "ĠTai": 1832,
      "Ġhold": 1833,
      "Ġhung": 1834,
      "ĠHmm": 1835,
      "ĠSm": 1836,
      "ross": 1837,
      "ĠBye": 1838,
      "ames": 1839,
      "ĠFrench": 1840,
      "Ġpract": 1841,
      "Ġsometimes": 1842,
      "Ġarri": 1843,
      "Ġdriver": 1844,
      "Ġcareful": 1845,
      "Ġdecided": 1846,
      "Ġdesign": 1847,
      "aturday": 1848,
      "iversity": 1849,
      "ĠFriday": 1850,
      "Ġhungry": 1851,
      "Let": 1852,
      "cri": 1853,
      "my": 1854,
      "Ġcool": 1855,
      "Ġarea": 1856,
      "Ġstar": 1857,
      "quare": 1858,
      "cks": 1859,
      "Ġrice": 1860,
      "Ġmag": 1861,
      "ipe": 1862,
      "Ġlovely": 1863,
      "Ġhotel": 1864,
      "Ġskirt": 1865,
      "Ġglass": 1866,
      "Ġreserv": 1867,
      "Ġpaint": 1868,
      "Ġfifty": 1869,
      "Ġproducts": 1870,
      "Ġcamer": 1871,
      "So": 1872,
      "by": 1873,
      "rant": 1874,
      "Ġwish": 1875,
      "Ġcertainly": 1876,
      "Ġtoast": 1877,
      "Ġfat": 1878,
      "ĠTell": 1879,
      "Ġhead": 1880,
      "ĠSome": 1881,
      "Ġanyway": 1882,
      "ĠGive": 1883,
      "Ġlose": 1884,
      "Ġblock": 1885,
      "Ġinstead": 1886,
      "Ġmachine": 1887,
      "izza": 1888,
      "Oh": 1889,
      "That": 1890,
      "mon": 1891,
      "ral": 1892,
      "Ġsound": 1893,
      "Ġpare": 1894,
      "ĠSaturday": 1895,
      "ains": 1896,
      "Ġcarpet": 1897,
      "ends": 1898,
      "Ġvis": 1899,
      "Ġmonths": 1900,
      "Ġdrinks": 1901,
      "Ġseen": 1902,
      "Ġcosts": 1903,
      "Ġdiffic": 1904,
      "Ġride": 1905,
      "Ġpurcha": 1906,
      "pl": 1907,
      "Ġtaking": 1908,
      "Ġfollow": 1909,
      "Ġgame": 1910,
      "Ġinv": 1911,
      "Ġforty": 1912,
      "riger": 1913,
      "ird": 1914,
      "Ġsun": 1915,
      "Ġspicy": 1916,
      "Ġroast": 1917,
      "Ġconn": 1918,
      "000": 1919,
      "Ġadvice": 1920,
      "Ġcompany": 1921,
      "clock": 1922,
      "Ġdeposit": 1923,
      "Ġlisten": 1924,
      "Ġrefriger": 1925,
      "Why": 1926,
      "Ġaccept": 1927,
      "fortable": 1928,
      "Ġmedium": 1929,
      "ces": 1930,
      "cess": 1931,
      "fu": 1932,
      "ives": 1933,
      "mit": 1934,
      "Ġsil": 1935,
      "Ġmar": 1936,
      "Ġfa": 1937,
      "Ġpa": 1938,
      "oot": 1939,
      "ĠYuan": 1940,
      "oth": 1941,
      "Ġdoor": 1942,
      "Ġbeing": 1943,
      "Ġeye": 1944,
      "ĠSomet": 1945,
      "ently": 1946,
      "ants": 1947,
      "Ġnothing": 1948,
      "cel": 1949,
      "Ġwasn": 1950,
      "Ġprog": 1951,
      "ctor": 1952,
      "ĠRo": 1953,
      "Ġprint": 1954,
      "Ġcards": 1955,
      "Ġfinished": 1956,
      "Ġlights": 1957,
      "Ġresp": 1958,
      "Ġmiles": 1959,
      "Ġregist": 1960,
      "Ġexcellent": 1961,
      "Ġfamily": 1962,
      "Ġreason": 1963,
      "aughter": 1964,
      "Ġrefrigerator": 1965,
      "less": 1966,
      "wan": 1967,
      "ward": 1968,
      "zy": 1969,
      "Ġtreat": 1970,
      "Ġaut": 1971,
      "Ġsort": 1972,
      "ret": 1973,
      "Ġmid": 1974,
      "Ġcame": 1975,
      "eaking": 1976,
      "ision": 1977,
      "Ġinter": 1978,
      "Ġdozen": 1979,
      "Ġhoney": 1980,
      "Ġhosp": 1981,
      "ĠMad": 1982,
      "Ġtaken": 1983,
      "Ġfoods": 1984,
      "Ġchang": 1985,
      "Ġweeks": 1986,
      "Ġbody": 1987,
      "mmer": 1988,
      "ĠUn": 1989,
      "Ġrunning": 1990,
      "cent": 1991,
      "hind": 1992,
      "Ġdaughter": 1993,
      "anger": 1994,
      "Ġlease": 1995,
      "Ġpoint": 1996,
      "Ġpub": 1997,
      "Ġkil": 1998,
      "Ġplenty": 1999,
      "uring": 2000,
      "Ġwants": 2001,
      "Ġallow": 2002,
      "Ġass": 2003,
      "Ġsugar": 2004,
      "Ġroll": 2005,
      "aby": 2006,
      "Ġadv": 2007,
      "Ġshare": 2008,
      "Ġshape": 2009,
      "phone": 2010,
      "Ġconsid": 2011,
      "ĠTaiwan": 2012,
      "bs": 2013,
      "bed": 2014,
      "bye": 2015,
      "ming": 2016,
      "oe": 2017,
      "ped": 2018,
      "ĠID": 2019,
      "Ġgar": 2020,
      "Ġgone": 2021,
      "atoes": 2022,
      "ĠHot": 2023,
      "Ġneigh": 2024,
      "aces": 2025,
      "ĠMa": 2026,
      "ĠMac": 2027,
      "ĠBec": 2028,
      "Ġasked": 2029,
      "ĠGr": 2030,
      "Ġworth": 2031,
      "Ġ13": 2032,
      "Ġdist": 2033,
      "Ġfries": 2034,
      "Ġguest": 2035,
      "Ġserve": 2036,
      "Ġdifference": 2037,
      "Ġdepartment": 2038,
      "Ġmessage": 2039,
      "Ġneighb": 2040,
      "--": 2041,
      "Here": 2042,
      "cher": 2043,
      "gain": 2044,
      "iv": 2045,
      "Ġact": 2046,
      "Ġcell": 2047,
      "Ġlow": 2048,
      "ics": 2049,
      "Ġbehind": 2050,
      "Ġnotice": 2051,
      "Ġcoat": 2052,
      "Ġsport": 2053,
      "umb": 2054,
      "Ġroses": 2055,
      "Ġ25": 2056,
      "Ġpaying": 2057,
      "Ġflow": 2058,
      "Ġbigger": 2059,
      "Ġcolors": 2060,
      "ĠKeep": 2061,
      "Ġsuits": 2062,
      "Ġparty": 2063,
      "Ġhandle": 2064,
      "Ġreceive": 2065,
      "Ġelect": 2066,
      "Ġwarrant": 2067,
      "Ġhate": 2068,
      "Ġsandw": 2069,
      "Ġmagaz": 2070,
      "Ġdifficult": 2071,
      "Ġhospital": 2072,
      "ah": 2073,
      "market": 2074,
      "sing": 2075,
      "uc": 2076,
      "Ġmother": 2077,
      "Ġdra": 2078,
      "Ġpat": 2079,
      "Ġnut": 2080,
      "rist": 2081,
      "outh": 2082,
      "ellow": 2083,
      "Ġjam": 2084,
      "acket": 2085,
      "Ġspeed": 2086,
      "Ġcomfortable": 2087,
      "ĠRe": 2088,
      "Ġview": 2089,
      "Ġrooms": 2090,
      "Ġkey": 2091,
      "Ġuniversity": 2092,
      "Ġlocal": 2093,
      "Ġappetiz": 2094,
      "Ġeyes": 2095,
      "Ġparents": 2096,
      "ĠHotel": 2097,
      "Ġwarranty": 2098,
      "And": 2099,
      "dle": 2100,
      "ijing": 2101,
      "Ġ%": 2102,
      "Ġsyst": 2103,
      "Ġwhe": 2104,
      "onna": 2105,
      "riend": 2106,
      "ĠBl": 2107,
      "ured": 2108,
      "Ġword": 2109,
      "Ġrush": 2110,
      "unk": 2111,
      "ational": 2112,
      "Ġquiet": 2113,
      "Ġprices": 2114,
      "Ġconf": 2115,
      "Ġmanag": 2116,
      "Ġprep": 2117,
      "Ġtrouble": 2118,
      "Ġapple": 2119,
      "Ġcomplet": 2120,
      "ips": 2121,
      "Ġserious": 2122,
      "ĠUm": 2123,
      "Ġdepends": 2124,
      "Ġstudy": 2125,
      "ĠBeijing": 2126,
      "Ġtown": 2127,
      "Ġsupermarket": 2128,
      "Did": 2129,
      "to": 2130,
      "Ġtou": 2131,
      "Ġsat": 2132,
      "Ġmet": 2133,
      "Ġball": 2134,
      "Ġdark": 2135,
      "Ġthrow": 2136,
      "Ġhit": 2137,
      "ĠAh": 2138,
      "Ġabsolutely": 2139,
      "Ġsold": 2140,
      "Ġasking": 2141,
      "Ġtook": 2142,
      "Ġ16": 2143,
      "Ġbrown": 2144,
      "olog": 2145,
      "Ġhomework": 2146,
      "Ġpercent": 2147,
      "Ġplayer": 2148,
      "Ġinsp": 2149,
      "Ġwatching": 2150,
      "Ġkidding": 2151,
      "Ġtype": 2152,
      "Ġreservation": 2153,
      "Ġvisit": 2154,
      "ĠBecause": 2155,
      "Ġelectric": 2156,
      "My": 2157,
      "There": 2158,
      "Wel": 2159,
      "gan": 2160,
      "ied": 2161,
      "ull": 2162,
      "Ġsense": 2163,
      "Ġmater": 2164,
      "Ġmeasure": 2165,
      "Ġfall": 2166,
      "Ġfore": 2167,
      "Ġlic": 2168,
      "Ġpizza": 2169,
      "ĠWith": 2170,
      "stick": 2171,
      "ens": 2172,
      "Ġinc": 2173,
      "Ġlife": 2174,
      "illy": 2175,
      "ĠBar": 2176,
      "Ġanyone": 2177,
      "astic": 2178,
      "Ġsummer": 2179,
      "ĠPark": 2180,
      "Ġclos": 2181,
      "Ġmang": 2182,
      "Ġprese": 2183,
      "Ġflat": 2184,
      "ister": 2185,
      "Ġleg": 2186,
      "Ġ40": 2187,
      "Ġslow": 2188,
      "Ġdogs": 2189,
      "Ġfamous": 2190,
      "Ġbroken": 2191,
      "ĠAmerica": 2192,
      "Ġdirection": 2193,
      "Ġbegin": 2194,
      "ĠSmith": 2195,
      "ĠMadam": 2196,
      "bedroom": 2197,
      "Ġsandwich": 2198,
      "Welcome": 2199,
      "Ġmaterial": 2200,
      "If": 2201,
      "dge": 2202,
      "ior": 2203,
      "over": 2204,
      "off": 2205,
      "Ġmas": 2206,
      "ering": 2207,
      "Ġfare": 2208,
      "Ġdad": 2209,
      "Ġdanc": 2210,
      "Ġgra": 2211,
      "Ġgonna": 2212,
      "ĠTr": 2213,
      "ener": 2214,
      "ĠSp": 2215,
      "pper": 2216,
      "Ġrad": 2217,
      "Ġcouldn": 2218,
      "arden": 2219,
      "Ġlonger": 2220,
      "Ġteach": 2221,
      "Ġstudents": 2222,
      "Ġrefund": 2223,
      "board": 2224,
      "Ġproduce": 2225,
      "Ġbargain": 2226,
      "Ġreading": 2227,
      "Ġhurt": 2228,
      "ĠShould": 2229,
      "ĠAmerican": 2230,
      "Ġpolice": 2231,
      "Ġquestion": 2232,
      "Ġwinter": 2233,
      "Ġsystem": 2234,
      "ib": 2235,
      "top": 2236,
      "ug": 2237,
      "Ġut": 2238,
      "Ġwrap": 2239,
      "Ġmix": 2240,
      "Ġmention": 2241,
      "Ġbright": 2242,
      "Ġfact": 2243,
      "Ġdam": 2244,
      "Ġdance": 2245,
      "Ġlam": 2246,
      "Ġgames": 2247,
      "Ġoh": 2248,
      "Ġdoctor": 2249,
      "Ġhon": 2250,
      "ĠHa": 2251,
      "ĠSund": 2252,
      "Ġyours": 2253,
      "als": 2254,
      "ilities": 2255,
      "Ġexcept": 2256,
      "Ġproper": 2257,
      "igital": 2258,
      "Ġshouldn": 2259,
      "Ġ11": 2260,
      "apers": 2261,
      "Ġeveryone": 2262,
      "iled": 2263,
      "Ġrecord": 2264,
      "Ġplaying": 2265,
      "Ġwondering": 2266,
      "ĠEverything": 2267,
      "Ġmovie": 2268,
      "ĠSunday": 2269,
      "30": 2270,
      "Mom": 2271,
      "ball": 2272,
      "band": 2273,
      "cer": 2274,
      "da": 2275,
      "food": 2276,
      "ients": 2277,
      "lace": 2278,
      "med": 2279,
      "Ġz": 2280,
      "Ġaw": 2281,
      "Ġcab": 2282,
      "ony": 2283,
      "Ġface": 2284,
      "Ġdar": 2285,
      "Ġdef": 2286,
      "Ġpork": 2287,
      "arant": 2288,
      "icle": 2289,
      "ato": 2290,
      "ĠShall": 2291,
      "ĠMake": 2292,
      "ters": 2293,
      "ĠBob": 2294,
      "ilt": 2295,
      "ilet": 2296,
      "ĠThose": 2297,
      "Ġquar": 2298,
      "ouses": 2299,
      "Ġusing": 2300,
      "Ġbrother": 2301,
      "Ġ300": 2302,
      "Ġstops": 2303,
      "Ġsele": 2304,
      "Ġfifteen": 2305,
      "Ġlucky": 2306,
      "Ġpicture": 2307,
      "Ġtransfer": 2308,
      "Ġtelephone": 2309,
      "Ġseafood": 2310,
      "Ġpurchase": 2311,
      "Ġpublic": 2312,
      "Ġflowers": 2313,
      "Ġmanager": 2314,
      "25": 2315,
      "Thank": 2316,
      "eight": 2317,
      "more": 2318,
      "ring": 2319,
      "sm": 2320,
      "Ġing": 2321,
      "inite": 2322,
      "Ġsister": 2323,
      "Ġcere": 2324,
      "Ġbaby": 2325,
      "Ġfitting": 2326,
      "otor": 2327,
      "ĠâĢĶ": 2328,
      "ĠâĢĿ": 2329,
      "Ġstick": 2330,
      "Ġneck": 2331,
      "Ġplaces": 2332,
      "Ġspeaking": 2333,
      "Ġcars": 2334,
      "ected": 2335,
      "Ġtelling": 2336,
      "Ġlots": 2337,
      "Ġchann": 2338,
      "Ġrecently": 2339,
      "airs": 2340,
      "Ġdecide": 2341,
      "Ġcontro": 2342,
      "Ġstudent": 2343,
      "Ġnewsp": 2344,
      "Ġsimple": 2345,
      "Ġpictures": 2346,
      "Ġsmoking": 2347,
      "fully": 2348,
      "ĠSometimes": 2349,
      "Ġingred": 2350,
      "bie": 2351,
      "iqu": 2352,
      "lit": 2353,
      "mas": 2354,
      "Ġed": 2355,
      "Ġsong": 2356,
      "Ġmount": 2357,
      "Ġcable": 2358,
      "ane": 2359,
      "estern": 2360,
      "ownt": 2361,
      "ĠTurn": 2362,
      "Ġforward": 2363,
      "Ġheat": 2364,
      "Ġhu": 2365,
      "ĠSu": 2366,
      "ĠSir": 2367,
      "ĠCo": 2368,
      "Ġorgan": 2369,
      "ĠLast": 2370,
      "ĠPeter": 2371,
      "ĠFr": 2372,
      "Ġval": 2373,
      "lfriend": 2374,
      "Ġeng": 2375,
      "ption": 2376,
      "Ġtickets": 2377,
      "ĠOnly": 2378,
      "Ġowners": 2379,
      "Ġgirl": 2380,
      "Ġgirlfriend": 2381,
      "time": 2382,
      "Ġremind": 2383,
      "Ġterrible": 2384,
      "Ġlaund": 2385,
      "Ġmodel": 2386,
      "Ġdrop": 2387,
      "Ġmiddle": 2388,
      "Ġradio": 2389,
      "Ġingredients": 2390,
      "ded": 2391,
      "ems": 2392,
      "ime": 2393,
      "uri": 2394,
      "yle": 2395,
      "Ġtight": 2396,
      "inum": 2397,
      "Ġwake": 2398,
      "Ġmist": 2399,
      "Ġcha": 2400,
      "Ġbreat": 2401,
      "Ġtoilet": 2402,
      "Ġfac": 2403,
      "Ġfair": 2404,
      "Ġduring": 2405,
      "Ġdownt": 2406,
      "ories": 2407,
      "Ġpri": 2408,
      "Ġgave": 2409,
      "ara": 2410,
      "ĠYork": 2411,
      "atc": 2412,
      "uth": 2413,
      "Ġhus": 2414,
      "ĠOr": 2415,
      "Ġstea": 2416,
      "Ġkill": 2417,
      "ĠDan": 2418,
      "Ġwashed": 2419,
      "Ġbuses": 2420,
      "Ġmoving": 2421,
      "ĠChrist": 2422,
      "Ġturned": 2423,
      "Ġswim": 2424,
      "Ġeasily": 2425,
      "itional": 2426,
      "Ġrid": 2427,
      "Ġlocated": 2428,
      "Ġpotatoes": 2429,
      "Ġrelax": 2430,
      "Ġcamera": 2431,
      "Ġblocks": 2432,
      "Ġappetizer": 2433,
      "Ġdancing": 2434,
      "initely": 2435,
      "Ġhusband": 2436,
      "cut": 2437,
      "den": 2438,
      "gr": 2439,
      "gy": 2440,
      "iving": 2441,
      "lo": 2442,
      "lves": 2443,
      "ween": 2444,
      "Ġsquare": 2445,
      "Ġmall": 2446,
      "Ġmotor": 2447,
      "Ġfoot": 2448,
      "Ġland": 2449,
      "Ġhabit": 2450,
      "arian": 2451,
      "oof": 2452,
      "Ġrequ": 2453,
      "Ġlikes": 2454,
      "Ġhig": 2455,
      "Ġstep": 2456,
      "Ġstock": 2457,
      "irus": 2458,
      "Ġanti": 2459,
      "ĠBesides": 2460,
      "Ġexper": 2461,
      "ĠPe": 2462,
      "Ġring": 2463,
      "ĠJim": 2464,
      "Ġappl": 2465,
      "Ġads": 2466,
      "Ġguarant": 2467,
      "Ġdrinking": 2468,
      "Ġboy": 2469,
      "ĠUh": 2470,
      "Ġairport": 2471,
      "Ġdressing": 2472,
      "ĠMrs": 2473,
      "Ġfaster": 2474,
      "azing": 2475,
      "Ġshirts": 2476,
      "Ġbroke": 2477,
      "Ġincluded": 2478,
      "Ġquickly": 2479,
      "Ġsurf": 2480,
      "Ġcompletely": 2481,
      "Ġdarling": 2482,
      "Ġmistake": 2483,
      "Ġdowntown": 2484,
      "ale": 2485,
      "ced": 2486,
      "cked": 2487,
      "even": 2488,
      "hood": 2489,
      "rot": 2490,
      "Ġtur": 2491,
      "rest": 2492,
      "Ġmir": 2493,
      "Ġcop": 2494,
      "Ġbri": 2495,
      "Ġgarden": 2496,
      "Ġoper": 2497,
      "Ġthin": 2498,
      "iced": 2499,
      "ĠAcc": 2500,
      "Ġstam": 2501,
      "Ġann": 2502,
      "ĠCl": 2503,
      "ĠNever": 2504,
      "ĠMost": 2505,
      "ĠMiss": 2506,
      "urry": 2507,
      "urger": 2508,
      "Ġgoods": 2509,
      "aste": 2510,
      "Ġprov": 2511,
      "Ġspot": 2512,
      "Ġworried": 2513,
      "Ġrange": 2514,
      "Ġamazing": 2515,
      "ately": 2516,
      "gging": 2517,
      "ĠNothing": 2518,
      "Ġstores": 2519,
      "Ġhands": 2520,
      "Ġearl": 2521,
      "Ġtrip": 2522,
      "Ġnearby": 2523,
      "Ġjoin": 2524,
      "Ġdesk": 2525,
      "ĠGod": 2526,
      "Ġground": 2527,
      "Ġattract": 2528,
      "Ġstrong": 2529,
      "Ġboxes": 2530,
      "iety": 2531,
      "Ġwalls": 2532,
      "Ġexample": 2533,
      "Ġbetween": 2534,
      "Ġsilk": 2535,
      "Ġconsider": 2536,
      "ĠGrand": 2537,
      "Ġprepare": 2538,
      "Ġtouch": 2539,
      "Ġlicense": 2540,
      "Ġlaundry": 2541,
      "cum": 2542,
      "oice": 2543,
      "ron": 2544,
      "tor": 2545,
      "ule": 2546,
      "ym": 2547,
      "ĠQ": 2548,
      "ĠÂ": 2549,
      "Ġtap": 2550,
      "oub": 2551,
      "Ġwom": 2552,
      "Ġwalking": 2553,
      "Ġbow": 2554,
      "Ġfra": 2555,
      "Ġdet": 2556,
      "oring": 2557,
      "Ġleather": 2558,
      "Ġpas": 2559,
      "Ġpipe": 2560,
      "Ġgym": 2561,
      "ited": 2562,
      "selves": 2563,
      "Ġthird": 2564,
      "isf": 2565,
      "ically": 2566,
      "Ġanim": 2567,
      "ĠNe": 2568,
      "Ġshoe": 2569,
      "Ġsomewhere": 2570,
      "urance": 2571,
      "Ġorange": 2572,
      "Ġcarry": 2573,
      "ump": 2574,
      "ĠIsn": 2575,
      "ressed": 2576,
      "Ġbrought": 2577,
      "Ġroomm": 2578,
      "Ġchance": 2579,
      "Ġapartments": 2580,
      "Ġshower": 2581,
      "Ġphot": 2582,
      "Ġunf": 2583,
      "Ġsalt": 2584,
      "Ġreser": 2585,
      "Ġfixed": 2586,
      "ency": 2587,
      "Ġcenter": 2588,
      "Ġcustomer": 2589,
      "Ġordered": 2590,
      "Ġcrazy": 2591,
      "cribe": 2592,
      "Ġprogram": 2593,
      "Ġregistered": 2594,
      "Ġmangoes": 2595,
      "ĠChristmas": 2596,
      "Ġguarantee": 2597,
      "Wait": 2598,
      "br": 2599,
      "ma": 2600,
      "tle": 2601,
      "uction": 2602,
      "ĠZ": 2603,
      "Ġtre": 2604,
      "Ġyellow": 2605,
      "Ġcrow": 2606,
      "Ġcooked": 2607,
      "Ġbother": 2608,
      "Ġlap": 2609,
      "Ġpapers": 2610,
      "vent": 2611,
      "Ġnon": 2612,
      "Ġitems": 2613,
      "ena": 2614,
      "ĠâĢľ": 2615,
      "Ġlip": 2616,
      "ĠHoney": 2617,
      "Ġequ": 2618,
      "ĠItal": 2619,
      "ĠCool": 2620,
      "adena": 2621,
      "ĠMar": 2622,
      "Ġbuilt": 2623,
      "Ġanywhere": 2624,
      "ivered": 2625,
      "Ġcover": 2626,
      "aster": 2627,
      "Ġprof": 2628,
      "Ġamount": 2629,
      "Ġarr": 2630,
      "osh": 2631,
      "Ġtruth": 2632,
      "Ġflight": 2633,
      "Ġcomplic": 2634,
      "Ġsmart": 2635,
      "Ġguys": 2636,
      "Ġsaying": 2637,
      "Ġshad": 2638,
      "Ġsales": 2639,
      "iances": 2640,
      "Ġdelivered": 2641,
      "Ġtrim": 2642,
      "Ġcleaning": 2643,
      "Ġairmail": 2644,
      "Ġparcel": 2645,
      "Ġrealtor": 2646,
      "Ġrail": 2647,
      "Ġfits": 2648,
      "They": 2649,
      "Ġreport": 2650,
      "Ġexchan": 2651,
      "velop": 2652,
      "Ġsnack": 2653,
      "Ġvarious": 2654,
      "Ġchops": 2655,
      "Ġdelivery": 2656,
      "Ġpractice": 2657,
      "Ġfault": 2658,
      "Ġpaid": 2659,
      "ĠRoad": 2660,
      "Ġreasonable": 2661,
      "Ġmagazine": 2662,
      "Ġsatisf": 2663,
      "ĠBarbie": 2664,
      "Ġpresent": 2665,
      "Ġselection": 2666,
      "Ġcontrol": 2667,
      "ĠAccord": 2668,
      "Ġcomplicated": 2669,
      "hip": 2670,
      "inet": 2671,
      "Ġsent": 2672,
      "rect": 2673,
      "Ġimm": 2674,
      "Ġbra": 2675,
      "Ġdigital": 2676,
      "Ġpress": 2677,
      "Ġpower": 2678,
      "Ġpull": 2679,
      "esday": 2680,
      "Ġnine": 2681,
      "ĠTry": 2682,
      "ĠWas": 2683,
      "Ġopp": 2684,
      "Ġheart": 2685,
      "Ġmem": 2686,
      "Ġweigh": 2687,
      "ries": 2688,
      "alc": 2689,
      "rove": 2690,
      "ĠCom": 2691,
      "ĠMum": 2692,
      "Ġwithin": 2693,
      "Ġbucks": 2694,
      "Ġsoda": 2695,
      "Ġje": 2696,
      "Ġanymore": 2697,
      "ĠLi": 2698,
      "Ġalum": 2699,
      "Ġclim": 2700,
      "Ġtwice": 2701,
      "berry": 2702,
      "Ġapples": 2703,
      "Ġkeys": 2704,
      "Ġshops": 2705,
      "Ġseed": 2706,
      "Ġcolour": 2707,
      "Ġfeels": 2708,
      "Ġinsurance": 2709,
      "Ġtemp": 2710,
      "Ġrain": 2711,
      "Ġrare": 2712,
      "Ġbatter": 2713,
      "Ġlarger": 2714,
      "iece": 2715,
      "Ġpostc": 2716,
      "Ġexercis": 2717,
      "Ġplanning": 2718,
      "Ġpainting": 2719,
      "Ġpieces": 2720,
      "Ġsingle": 2721,
      "Ġfigure": 2722,
      "Ġconnection": 2723,
      "Ġneighbor": 2724,
      "ĠRemember": 2725,
      "Ġhonest": 2726,
      "Ġdefinitely": 2727,
      "Ġcereal": 2728,
      "Ġnewspaper": 2729,
      "ĠPeople": 2730,
      "Ġappliances": 2731,
      "Ġmirr": 2732,
      "Ġearlier": 2733,
      "Dad": 2734,
      "feter": 2735,
      "men": 2736,
      "od": 2737,
      "ole": 2738,
      "ris": 2739,
      "Ġtour": 2740,
      "inary": 2741,
      "Ġsitting": 2742,
      "hai": 2743,
      "Ġmood": 2744,
      "Ġmap": 2745,
      "Ġban": 2746,
      "Ġpound": 2747,
      "Ġgro": 2748,
      "ays": 2749,
      "Ġdocum": 2750,
      "ĠHurry": 2751,
      "vert": 2752,
      "ĠApp": 2753,
      "ĠCent": 2754,
      "ĠMon": 2755,
      "ĠMmm": 2756,
      "ility": 2757,
      "Ġround": 2758,
      "Ġchips": 2759,
      "Ġ19": 2760,
      "ĠWhile": 2761,
      "ĠJap": 2762,
      "Ġbrow": 2763,
      "venue": 2764,
      "Ġ24": 2765,
      "Ġtrad": 2766,
      "aged": 2767,
      "Ġpepper": 2768,
      "Ġworks": 2769,
      "Ġwaiter": 2770,
      "Ġcoup": 2771,
      "Ġdecision": 2772,
      "Ġsched": 2773,
      "Ġcafeter": 2774,
      "Ġcute": 2775,
      "Ġaccount": 2776,
      "Ġcontact": 2777,
      "Ġcontract": 2778,
      "Ġvegetarian": 2779,
      "Ġfurnished": 2780,
      "Ġexpect": 2781,
      "Ġinclude": 2782,
      "Ġmeals": 2783,
      "Ġfilm": 2784,
      "Ġlaw": 2785,
      "Ġskirts": 2786,
      "Ġstamps": 2787,
      "Ġlipstick": 2788,
      "Ġexchange": 2789,
      "Ġaluminum": 2790,
      "ĠJapan": 2791,
      "Ġcafeteria": 2792,
      "Don": 2793,
      "Well": 2794,
      "ald": 2795,
      "ik": 2796,
      "ker": 2797,
      "lain": 2798,
      "ume": 2799,
      "Ġtill": 2800,
      "heck": 2801,
      "Ġwa": 2802,
      "Ġweather": 2803,
      "Ġmis": 2804,
      "Ġcir": 2805,
      "Ġcause": 2806,
      "Ġble": 2807,
      "Ġfre": 2808,
      "Ġdust": 2809,
      "Ġdream": 2810,
      "Ġdanger": 2811,
      "Ġpity": 2812,
      "Ġgent": 2813,
      "Ġgener": 2814,
      "Ġgiving": 2815,
      "omat": 2816,
      "itch": 2817,
      "isle": 2818,
      "Ġhouses": 2819,
      "Ġwebs": 2820,
      "ĠSons": 2821,
      "ĠChan": 2822,
      "Ġjacket": 2823,
      "urity": 2824,
      "Ġknew": 2825,
      "ored": 2826,
      "Ġcoke": 2827,
      "Ġprocess": 2828,
      "Ġsplit": 2829,
      "ĠPro": 2830,
      "Ġsaving": 2831,
      "Ġ18": 2832,
      "Ġmoist": 2833,
      "ĠEven": 2834,
      "Ġmaj": 2835,
      "Ġvide": 2836,
      "ardon": 2837,
      "Ġ26": 2838,
      "Ġmonthly": 2839,
      "Ġbreast": 2840,
      "Ġtomato": 2841,
      "Ġkeeps": 2842,
      "Ġfinally": 2843,
      "axi": 2844,
      "ĠAnyway": 2845,
      "Ġhappens": 2846,
      "Ġmoved": 2847,
      "Ġattend": 2848,
      "Ġbedrooms": 2849,
      "Ġpromot": 2850,
      "ĠAbsolutely": 2851,
      "Ġsmoke": 2852,
      "Ġvariety": 2853,
      "Ġmovies": 2854,
      "Ġordinary": 2855,
      "Ġdeliver": 2856,
      "Ġrespons": 2857,
      "Ġsports": 2858,
      "Ġdraw": 2859,
      "Ġutilities": 2860,
      "uriz": 2861,
      "Ġexperience": 2862,
      "Waiter": 2863,
      "ĠItalian": 2864,
      "Ġjeans": 2865,
      "Ġmoisturiz": 2866,
      "com": 2867,
      "ege": 2868,
      "made": 2869,
      "ners": 2870,
      "pri": 2871,
      "wise": 2872,
      "Ġsam": 2873,
      "Ġsick": 2874,
      "Ġmatch": 2875,
      "onn": 2876,
      "Ġboss": 2877,
      "Ġbooked": 2878,
      "Ġfather": 2879,
      "Ġfeet": 2880,
      "Ġdate": 2881,
      "Ġlady": 2882,
      "Ġlower": 2883,
      "Ġpen": 2884,
      "Ġnood": 2885,
      "Ġnap": 2886,
      "Ġnorm": 2887,
      "Ġhamb": 2888,
      "stairs": 2889,
      "Ġlid": 2890,
      "rill": 2891,
      "rimp": 2892,
      "ĠAvenue": 2893,
      "Ġstove": 2894,
      "hang": 2895,
      "Ġplat": 2896,
      "indy": 2897,
      "Ġneeded": 2898,
      "ĠLike": 2899,
      "Ġtie": 2900,
      "ules": 2901,
      "ĠPut": 2902,
      "Ġran": 2903,
      "Ġcomm": 2904,
      "Ġchess": 2905,
      "ĠJack": 2906,
      "Ġnoise": 2907,
      "Ġgotten": 2908,
      "Ġkept": 2909,
      "Ġblow": 2910,
      "Ġguy": 2911,
      "ude": 2912,
      "Ġideas": 2913,
      "Ġserved": 2914,
      "ĠSteven": 2915,
      "Ġcarefully": 2916,
      "ĠAlso": 2917,
      "Ġeasier": 2918,
      "Ġtastes": 2919,
      "Ġimprove": 2920,
      "Ġstyles": 2921,
      "Ġcorrect": 2922,
      "Ġwindows": 2923,
      "Ġavo": 2924,
      "Ġsoftware": 2925,
      "Ġtyp": 2926,
      "Ġcollect": 2927,
      "ĠExactly": 2928,
      "offer": 2929,
      "Ġorganic": 2930,
      "Ġfacial": 2931,
      "Ġroommate": 2932,
      "Ġcrowded": 2933,
      "Ġrailway": 2934,
      "ĠApple": 2935,
      "Ġschedule": 2936,
      "77": 2937,
      "Look": 2938,
      "aw": 2939,
      "aily": 2940,
      "bin": 2941,
      "cial": 2942,
      "gent": 2943,
      "nic": 2944,
      "rit": 2945,
      "tadena": 2946,
      "uum": 2947,
      "weight": 2948,
      "Ġsle": 2949,
      "ĠInd": 2950,
      "Ġwed": 2951,
      "Ġwood": 2952,
      "Ġmeter": 2953,
      "Ġcap": 2954,
      "Ġbear": 2955,
      "Ġfee": 2956,
      "Ġfry": 2957,
      "anna": 2958,
      "Ġpants": 2959,
      "eth": 2960,
      "ets": 2961,
      "Ġnerv": 2962,
      "Ġnatur": 2963,
      "itam": 2964,
      "ster": 2965,
      "isk": 2966,
      "Ġind": 2967,
      "ature": 2968,
      "Ġlimit": 2969,
      "Ġbeha": 2970,
      "Ġhor": 2971,
      "Ġstir": 2972,
      "irm": 2973,
      "ĠSince": 2974,
      "ĠSquare": 2975,
      "road": 2976,
      "ashed": 2977,
      "Ġplumb": 2978,
      "ĠMike": 2979,
      "ĠBill": 2980,
      "Ġbutter": 2981,
      "Ġalright": 2982,
      "Ġspent": 2983,
      "Ġrout": 2984,
      "unately": 2985,
      "Ġclock": 2986,
      "epar": 2987,
      "Ġdial": 2988,
      "Ġconc": 2989,
      "using": 2990,
      "Ġener": 2991,
      "Ġflavor": 2992,
      "Ġperm": 2993,
      "Ġteacher": 2994,
      "Ġdining": 2995,
      "ify": 2996,
      "ĠDidn": 2997,
      "ĠAltadena": 2998,
      "Ġcloth": 2999,
      "Ġsecurity": 3000,
      "ĠLooks": 3001,
      "Ġselling": 3002,
      "Ġgrad": 3003,
      "Ġgrand": 3004,
      "Ġclasses": 3005,
      "Ġunderstanding": 3006,
      "Ġexciting": 3007,
      "Ġfruits": 3008,
      "Ġstrange": 3009,
      "Ġexpress": 3010,
      "Ġinstall": 3011,
      "Ġcurt": 3012,
      "Ġtelev": 3013,
      "Ġvacuum": 3014,
      "Ġarrive": 3015,
      "Ġinspection": 3016,
      "Ġengine": 3017,
      "Ġpriv": 3018,
      "Ġsteamed": 3019,
      "Ġswimming": 3020,
      "Ġbowl": 3021,
      "Ġarrange": 3022,
      "Ġneighborhood": 3023,
      "Ġmirror": 3024,
      "Ġgentle": 3025,
      "Ġwebsite": 3026,
      "Ġmajor": 3027,
      "Ġvideo": 3028,
      "Ġnoodles": 3029,
      "Ġwedding": 3030,
      "Ġnervous": 3031,
      "Ġplumbing": 3032,
      "Come": 3033,
      "Wow": 3034,
      "bec": 3035,
      "cara": 3036,
      "fic": 3037,
      "land": 3038,
      "min": 3039,
      "ned": 3040,
      "sw": 3041,
      "the": 3042,
      "Ġtail": 3043,
      "Ġsour": 3044,
      "Ġsepar": 3045,
      "hand": 3046,
      "Ġwool": 3047,
      "Ġbid": 3048,
      "Ġbite": 3049,
      "Ġborrow": 3050,
      "Ġdouble": 3051,
      "Ġgrow": 3052,
      "Ġob": 3053,
      "ooth": 3054,
      "Ġreach": 3055,
      "Ġlift": 3056,
      "ĠHond": 3057,
      "Ġemp": 3058,
      "Ġemer": 3059,
      "ĠAr": 3060,
      "Ġstom": 3061,
      "ĠCar": 3062,
      "ĠCindy": 3063,
      "ĠNice": 3064,
      "ĠMed": 3065,
      "ĠMany": 3066,
      "Ġshrimp": 3067,
      "ĠLond": 3068,
      "ĠGot": 3069,
      "Ġcarrot": 3070,
      "Ġrules": 3071,
      "Ġamong": 3072,
      "Ġ14": 3073,
      "Ġ17": 3074,
      "ĠThree": 3075,
      "aret": 3076,
      "Ġvoice": 3077,
      "ichuan": 3078,
      "Ġshelf": 3079,
      "Ġtrust": 3080,
      "Ġapolog": 3081,
      "Ġadvert": 3082,
      "aker": 3083,
      "istant": 3084,
      "mpoo": 3085,
      "Ġtravel": 3086,
      "Ġothers": 3087,
      "Ġleaking": 3088,
      "Ġleaving": 3089,
      "Ġshampoo": 3090,
      "Ġ500": 3091,
      "intosh": 3092,
      "Ġfinal": 3093,
      "Ġveh": 3094,
      "Ġparts": 3095,
      "Ġdecor": 3096,
      "Ġsmaller": 3097,
      "Ġscar": 3098,
      "ternational": 3099,
      "Ġperfume": 3100,
      "Ġcharg": 3101,
      "Ġvegetable": 3102,
      "Ġbarbec": 3103,
      "Ġsubs": 3104,
      "Ġattention": 3105,
      "ĠShow": 3106,
      "Ġfunny": 3107,
      "Ġsteaks": 3108,
      "Ġcustomers": 3109,
      "Ġdevelop": 3110,
      "Ġcameras": 3111,
      "Ġchanged": 3112,
      "Ġadvant": 3113,
      "Ġactiv": 3114,
      "Ġfalling": 3115,
      "Ġforeign": 3116,
      "Ġmascara": 3117,
      "Ġlamb": 3118,
      "Ġlandl": 3119,
      "Ġhigher": 3120,
      "ĠNext": 3121,
      "Ġshadow": 3122,
      "ĠCentral": 3123,
      "Ġcirc": 3124,
      "Ġtelevision": 3125,
      "ĠLondon": 3126,
      "45": 3127,
      "Now": 3128,
      "Pl": 3129,
      "co": 3130,
      "ex": 3131,
      "ket": 3132,
      "lt": 3133,
      "ne": 3134,
      "ns": 3135,
      "night": 3136,
      "ta": 3137,
      "wberry": 3138,
      "Ġ0": 3139,
      "Ġow": 3140,
      "Ġtables": 3141,
      "Ġaisle": 3142,
      "rew": 3143,
      "Ġmp": 3144,
      "Ġcross": 3145,
      "Ġbake": 3146,
      "Ġband": 3147,
      "Ġbicy": 3148,
      "Ġbesides": 3149,
      "Ġtooth": 3150,
      "Ġfly": 3151,
      "Ġfight": 3152,
      "orge": 3153,
      "essed": 3154,
      "Ġgives": 3155,
      "etch": 3156,
      "Ġnea": 3157,
      "ĠTu": 3158,
      "ĠWalk": 3159,
      "Ġoven": 3160,
      "Ġham": 3161,
      "ediate": 3162,
      "ĠHop": 3163,
      "ĠHold": 3164,
      "Ġeff": 3165,
      "ĠSichuan": 3166,
      "Ġnecess": 3167,
      "Ġansw": 3168,
      "Ġplastic": 3169,
      "oods": 3170,
      "ĠDri": 3171,
      "ĠDav": 3172,
      "Ġcock": 3173,
      "Ġcode": 3174,
      "Ġtires": 3175,
      "amn": 3176,
      "Ġspare": 3177,
      "Ġchin": 3178,
      "Ġload": 3179,
      "Ġloves": 3180,
      "une": 3181,
      "Ġchef": 3182,
      "Ġnose": 3183,
      "Ġmode": 3184,
      "ousers": 3185,
      "itten": 3186,
      "Ġmanage": 3187,
      "Ġtrousers": 3188,
      "Ġeverywhere": 3189,
      "ield": 3190,
      "Ġblood": 3191,
      "Ġwriting": 3192,
      "Ġstopped": 3193,
      "Ġfeeling": 3194,
      "ails": 3195,
      "Ġagainst": 3196,
      "ific": 3197,
      "ĠKing": 3198,
      "Ġsuitable": 3199,
      "Ġmostly": 3200,
      "Ġtasty": 3201,
      "Ġfreez": 3202,
      "Ġ60": 3203,
      "Ġnearly": 3204,
      "Ġaccord": 3205,
      "Ġripe": 3206,
      "Ġ80": 3207,
      "Ġtech": 3208,
      "Ġdescribe": 3209,
      "ancy": 3210,
      "Ġfoundation": 3211,
      "Ġlearning": 3212,
      "Ġsuggestions": 3213,
      "Ġbags": 3214,
      "Ġstandard": 3215,
      "Ġbottom": 3216,
      "Ġincluding": 3217,
      "Ġsalads": 3218,
      "Ġ90": 3219,
      "Ġpets": 3220,
      "Ġcats": 3221,
      "Ġcollege": 3222,
      "Ġstarving": 3223,
      "ĠMacintosh": 3224,
      "together": 3225,
      "Ġelectricity": 3226,
      "Ġmixed": 3227,
      "load": 3228,
      "Ġattractive": 3229,
      "ĠÂ£": 3230,
      "Ġimmediate": 3231,
      "Ġbattery": 3232,
      "Ġpostcards": 3233,
      "Ġwaist": 3234,
      "Ġdangerous": 3235,
      "itamins": 3236,
      "Ġprivate": 3237,
      "ĠHonda": 3238,
      "Ġvehicle": 3239,
      "Ġlandlord": 3240,
      "Ġnearest": 3241,
      "ĠDavid": 3242,
      "Will": 3243,
      "che": 3244,
      "gers": 3245,
      "ipp": 3246,
      "iel": 3247,
      "light": 3248,
      "oking": 3249,
      "sp": 3250,
      "vator": 3251,
      "view": 3252,
      "xic": 3253,
      "Ġwatc": 3254,
      "Ġwaste": 3255,
      "Ġwanna": 3256,
      "Ġiron": 3257,
      "Ġbike": 3258,
      "Ġboring": 3259,
      "Ġfro": 3260,
      "Ġdaily": 3261,
      "Ġlen": 3262,
      "Ġlooked": 3263,
      "inger": 3264,
      "Ġpic": 3265,
      "Ġpeel": 3266,
      "Ġpian": 3267,
      "Ġpush": 3268,
      "Ġnet": 3269,
      "ĠWang": 3270,
      "ĠWestern": 3271,
      "Ġocc": 3272,
      "Ġiss": 3273,
      "isa": 3274,
      "Ġincome": 3275,
      "ats": 3276,
      "lex": 3277,
      "ley": 3278,
      "uts": 3279,
      "Ġrear": 3280,
      "Ġbeans": 3281,
      "ĠOther": 3282,
      "ĠAir": 3283,
      "Ġur": 3284,
      "ĠDE": 3285,
      "ache": 3286,
      "Ġjunk": 3287,
      "ores": 3288,
      "ils": 3289,
      "iling": 3290,
      "ilar": 3291,
      "ilton": 3292,
      "Ġwhatever": 3293,
      "ĠWelcome": 3294,
      "ulia": 3295,
      "ĠPC": 3296,
      "Ġworked": 3297,
      "Ġcombin": 3298,
      "Ġclub": 3299,
      "Ġchecked": 3300,
      "ĠRick": 3301,
      "urnished": 3302,
      "Ġusual": 3303,
      "ĠExcuse": 3304,
      "izes": 3305,
      "uss": 3306,
      "Ġdownload": 3307,
      "Ġwritten": 3308,
      "Ġshows": 3309,
      "ĠGoodbye": 3310,
      "ĠUS": 3311,
      "Ġstayed": 3312,
      "Ġseller": 3313,
      "Ġhaircut": 3314,
      "oga": 3315,
      "Ġpassport": 3316,
      "Ġbelt": 3317,
      "Ġrepair": 3318,
      "Ġcris": 3319,
      "Ġelevator": 3320,
      "Ġpersonal": 3321,
      "Ġacross": 3322,
      "Ġwallet": 3323,
      "Ġburger": 3324,
      "Ġaffordable": 3325,
      "Ġbasket": 3326,
      "ĠMexic": 3327,
      "Ġfigures": 3328,
      "Ġprogra": 3329,
      "Ġchanging": 3330,
      "Ġguests": 3331,
      "Ġpattern": 3332,
      "Ġwhether": 3333,
      "ĠBlack": 3334,
      "Ġnecklace": 3335,
      "Ġchannels": 3336,
      "Ġmountain": 3337,
      "Ġpassed": 3338,
      "Ġlaptop": 3339,
      "Ġclimb": 3340,
      "Ġtraditional": 3341,
      "Ġavoid": 3342,
      "Ġemerg": 3343,
      "Ġapologize": 3344,
      "Ġbarbecue": 3345,
      "Ġowe": 3346,
      "Ġbicycle": 3347,
      "ĠTuesday": 3348,
      "Ġaccording": 3349,
      "36": 3350,
      "KE": 3351,
      "VD": 3352,
      "When": 3353,
      "Yes": 3354,
      "ds": 3355,
      "done": 3356,
      "dden": 3357,
      "four": 3358,
      "iable": 3359,
      "ienc": 3360,
      "ks": 3361,
      "mium": 3362,
      "not": 3363,
      "tes": 3364,
      "ught": 3365,
      "Ġtall": 3366,
      "Ġtree": 3367,
      "Ġage": 3368,
      "Ġsink": 3369,
      "Ġsides": 3370,
      "Ġsilly": 3371,
      "read": 3372,
      "Ġyard": 3373,
      "Ġmouth": 3374,
      "Ġcal": 3375,
      "Ġcas": 3376,
      "Ġcakes": 3377,
      "Ġbase": 3378,
      "Ġfur": 3379,
      "Ġduck": 3380,
      "Ġdead": 3381,
      "Ġdeep": 3382,
      "Ġdoub": 3383,
      "Ġlou": 3384,
      "Ġlend": 3385,
      "Ġpin": 3386,
      "Ġpres": 3387,
      "ette": 3388,
      "ĠâĢĺ": 3389,
      "Ġhell": 3390,
      "Ġlif": 3391,
      "ĠOver": 3392,
      "Ġstate": 3393,
      "ĠSam": 3394,
      "ĠSize": 3395,
      "Ġuh": 3396,
      "ases": 3397,
      "ĠCity": 3398,
      "ĠCheck": 3399,
      "ental": 3400,
      "ĠDVD": 3401,
      "ĠWhatever": 3402,
      "ĠMount": 3403,
      "Ġbud": 3404,
      "Ġseeing": 3405,
      "Ġaltogether": 3406,
      "Ġsudden": 3407,
      "Ġexcuse": 3408,
      "acks": 3409,
      "Ġrich": 3410,
      "Ġracket": 3411,
      "elt": 3412,
      "elve": 3413,
      "Ġ150": 3414,
      "Ġdiam": 3415,
      "Ġourselves": 3416,
      "Ġcalls": 3417,
      "Ġways": 3418,
      "Ġvase": 3419,
      "Ġvirus": 3420,
      "ective": 3421,
      "Ġbye": 3422,
      "Ġarm": 3423,
      "Ġenv": 3424,
      "Ġapplic": 3425,
      "Ġfridge": 3426,
      "Ġblouse": 3427,
      "Ġ35": 3428,
      "Ġ36": 3429,
      "Ġserv": 3430,
      "Ġunl": 3431,
      "Ġunit": 3432,
      "ptions": 3433,
      "Ġscreen": 3434,
      "Ġperform": 3435,
      "Ġjogging": 3436,
      "Ġreplace": 3437,
      "Ġfloors": 3438,
      "Ġbills": 3439,
      "Ġstrawberry": 3440,
      "Ġcorn": 3441,
      "Ġbottles": 3442,
      "Ġseats": 3443,
      "Ġgirls": 3444,
      "Ġmeeting": 3445,
      "Ġsimilar": 3446,
      "Ġsnow": 3447,
      "Ġcentral": 3448,
      "Ġterrific": 3449,
      "Ġbasic": 3450,
      "Ġclearly": 3451,
      "Ġmodels": 3452,
      "Ġquestions": 3453,
      "Ġarrived": 3454,
      "Ġglasses": 3455,
      "Ġautomat": 3456,
      "Ġrolls": 3457,
      "Ġgarage": 3458,
      "Ġdistance": 3459,
      "Ġslowly": 3460,
      "ĠSuper": 3461,
      "venty": 3462,
      "Ġsatisfact": 3463,
      "ĠMonday": 3464,
      "Ġhamburger": 3465,
      "Ġnatural": 3466,
      "Ġcurtains": 3467,
      "ĠMedium": 3468,
      "Ġcarrots": 3469,
      "Ġadvertise": 3470,
      "Please": 3471,
      "Ġdoubt": 3472,
      "10": 3473,
      "15": 3474,
      "aul": 3475,
      "can": 3476,
      "cellent": 3477,
      "free": 3478,
      "ired": 3479,
      "ipped": 3480,
      "nis": 3481,
      "rings": 3482,
      "roof": 3483,
      "uis": 3484,
      "year": 3485,
      "Ġet": 3486,
      "Ġsqu": 3487,
      "reme": 3488,
      "rent": 3489,
      "rease": 3490,
      "ĠIKE": 3491,
      "hael": 3492,
      "Ġwide": 3493,
      "Ġcot": 3494,
      "Ġcry": 3495,
      "Ġcord": 3496,
      "Ġcult": 3497,
      "Ġbalc": 3498,
      "Ġfant": 3499,
      "Ġfeat": 3500,
      "Ġfab": 3501,
      "Ġfire": 3502,
      "Ġdem": 3503,
      "orn": 3504,
      "Ġlad": 3505,
      "Ġloose": 3506,
      "Ġpant": 3507,
      "Ġpig": 3508,
      "Ġport": 3509,
      "Ġpenc": 3510,
      "Ġgrill": 3511,
      "key": 3512,
      "Ġhang": 3513,
      "ĠYep": 3514,
      "isy": 3515,
      "Ġinch": 3516,
      "icles": 3517,
      "ichael": 3518,
      "ative": 3519,
      "eding": 3520,
      "ute": 3521,
      "utch": 3522,
      "ĠHum": 3523,
      "ĠOak": 3524,
      "Ġev": 3525,
      "Ġemb": 3526,
      "ĠAmy": 3527,
      "iron": 3528,
      "Ġliked": 3529,
      "illa": 3530,
      "Ġang": 3531,
      "ĠCash": 3532,
      "ĠChar": 3533,
      "Ġplate": 3534,
      "Ġplus": 3535,
      "Ġplans": 3536,
      "ĠDamn": 3537,
      "acel": 3538,
      "ĠMore": 3539,
      "Ġnote": 3540,
      "raph": 3541,
      "eck": 3542,
      "Ġbutton": 3543,
      "ili": 3544,
      "earch": 3545,
      "amb": 3546,
      "Ġoutd": 3547,
      "Ġsaf": 3548,
      "Ġworse": 3549,
      "igaret": 3550,
      "Ġrose": 3551,
      "ĠFl": 3552,
      "ĠFour": 3553,
      "unity": 3554,
      "ĠJane": 3555,
      "bert": 3556,
      "Ġbracel": 3557,
      "Ġvitamins": 3558,
      "Ġfinding": 3559,
      "Ġuseful": 3560,
      "Ġ22": 3561,
      "Ġ250": 3562,
      "oles": 3563,
      "ĠAren": 3564,
      "Ġapply": 3565,
      "istory": 3566,
      "Ġleaves": 3567,
      "Ġcookies": 3568,
      "Ġboard": 3569,
      "ifth": 3570,
      "iously": 3571,
      "Ġbrings": 3572,
      "iang": 3573,
      "upid": 3574,
      "Ġcleans": 3575,
      "Ġbecom": 3576,
      "Ġscr": 3577,
      "Ġtennis": 3578,
      "Ġcaught": 3579,
      "Ġsecret": 3580,
      "iction": 3581,
      "Ġpairs": 3582,
      "Ġhoping": 3583,
      "Ġcashme": 3584,
      "Ġexplain": 3585,
      "Ġcurrent": 3586,
      "ohol": 3587,
      "Ġincludes": 3588,
      "Which": 3589,
      "ĠToday": 3590,
      "Ġends": 3591,
      "Ġsurpri": 3592,
      "Ġdryer": 3593,
      "Ġlearned": 3594,
      "Ġmachines": 3595,
      "Ġdirect": 3596,
      "ĠBrown": 3597,
      "cription": 3598,
      "Ġkilomet": 3599,
      "Ġallowed": 3600,
      "Ġmagazines": 3601,
      "Ġmeters": 3602,
      "ĠTrust": 3603,
      "ĠTrue": 3604,
      "Ġquarter": 3605,
      "Ġchannel": 3606,
      "ique": 3607,
      "ĠCoke": 3608,
      "Ġvalue": 3609,
      "ĠDaniel": 3610,
      "Ġhabits": 3611,
      "Ġrequire": 3612,
      "Ġprovide": 3613,
      "Ġwomen": 3614,
      "Ġreserved": 3615,
      "Ġprofess": 3616,
      "Ġmemory": 3617,
      "Ġbanan": 3618,
      "Ġgrocer": 3619,
      "Ġpromotion": 3620,
      "Ġnapk": 3621,
      "Ġstomach": 3622,
      "Ġtechn": 3623,
      "ĠIKEA": 3624,
      "99": 3625,
      "Ah": 3626,
      "Honey": 3627,
      "OK": 3628,
      "Peter": 3629,
      "St": 3630,
      "bage": 3631,
      "case": 3632,
      "fl": 3633,
      "ject": 3634,
      "lor": 3635,
      "nger": 3636,
      "oc": 3637,
      "overs": 3638,
      "pin": 3639,
      "rict": 3640,
      "sc": 3641,
      "sha": 3642,
      "tail": 3643,
      "val": 3644,
      "was": 3645,
      "ycle": 3646,
      "Ġx": 3647,
      "Ġer": 3648,
      "Ġtal": 3649,
      "Ġaud": 3650,
      "iny": 3651,
      "rees": 3652,
      "Ġmill": 3653,
      "Ġce": 3654,
      "Ġcigaret": 3655,
      "Ġbac": 3656,
      "Ġtoys": 3657,
      "Ġpink": 3658,
      "Ġgrap": 3659,
      "ites": 3660,
      "seum": 3661,
      "Ġopin": 3662,
      "enny": 3663,
      "arm": 3664,
      "ishing": 3665,
      "Ġheels": 3666,
      "Ġbell": 3667,
      "Ġmemb": 3668,
      "ĠHer": 3669,
      "ĠHis": 3670,
      "ĠHel": 3671,
      "Ġcannot": 3672,
      "Ġstuck": 3673,
      "Ġstory": 3674,
      "ĠSus": 3675,
      "Ġgold": 3676,
      "Ġplates": 3677,
      "ĠDep": 3678,
      "ached": 3679,
      "ooks": 3680,
      "ĠMark": 3681,
      "ĠMichael": 3682,
      "Ġnoticed": 3683,
      "erence": 3684,
      "ĠLe": 3685,
      "Ġcosm": 3686,
      "Ġalone": 3687,
      "ppy": 3688,
      "Ġhelps": 3689,
      "Ġspr": 3690,
      "Ġoutlet": 3691,
      "ĠGu": 3692,
      "Ġsafe": 3693,
      "Ġrate": 3694,
      "erson": 3695,
      "Ġtwelve": 3696,
      "Ġnobody": 3697,
      "Ġnoisy": 3698,
      "ĠRest": 3699,
      "Ġprot": 3700,
      "ĠEr": 3701,
      "Ġhasn": 3702,
      "olid": 3703,
      "eason": 3704,
      "ĠHelp": 3705,
      "Ġperhaps": 3706,
      "Ġputting": 3707,
      "Ġleak": 3708,
      "Ġseries": 3709,
      "Ġideal": 3710,
      "Ġteam": 3711,
      "ified": 3712,
      "ission": 3713,
      "ĠInternet": 3714,
      "ucky": 3715,
      "Ġcleaned": 3716,
      "oons": 3717,
      "Ġ45": 3718,
      "Ġchoices": 3719,
      "Ġaccess": 3720,
      "Ġslot": 3721,
      "Ġslim": 3722,
      "Ġstaying": 3723,
      "Ġsells": 3724,
      "Ġwearing": 3725,
      "Ġtrains": 3726,
      "ograph": 3727,
      "Ġrestaurants": 3728,
      "Ġpackages": 3729,
      "Ġgifts": 3730,
      "Ġpurse": 3731,
      "Ġenjoyed": 3732,
      "Ġwarm": 3733,
      "Ġsweaters": 3734,
      "Ġtransport": 3735,
      "Ġvacation": 3736,
      "Ġentertain": 3737,
      "ĠExcellent": 3738,
      "Ġdesigned": 3739,
      "Ġsunny": 3740,
      "Ġkilo": 3741,
      "---": 3742,
      "Ġlegal": 3743,
      "Ġbeginning": 3744,
      "Ġdamaged": 3745,
      "Ġproperty": 3746,
      "Ġhuh": 3747,
      "Ġfootball": 3748,
      "Ġsurface": 3749,
      "Ġturning": 3750,
      "Ġcopy": 3751,
      "Ġbridge": 3752,
      "Ġanimals": 3753,
      "ĠComp": 3754,
      "Ġexercises": 3755,
      "Ġcoupons": 3756,
      "Ġnormal": 3757,
      "hanghai": 3758,
      "Ġplatform": 3759,
      "Ġroute": 3760,
      "Ġconcert": 3761,
      "Ġenergy": 3762,
      "Ġscarf": 3763,
      "Ġcocktail": 3764,
      "Ġimmediately": 3765,
      "Ġpicnic": 3766,
      "Ġpiano": 3767,
      "Ġissue": 3768,
      "Ġurgent": 3769,
      "ĠDEL": 3770,
      "Ġcrisp": 3771,
      "Ġdiamond": 3772,
      "Ġenviron": 3773,
      "Ġcotton": 3774,
      "Ġbalcony": 3775,
      "Ġgroceries": 3776,
      "Ġmembers": 3777,
      "ĠHelen": 3778,
      "Ġcosmet": 3779,
      "Ġenvironment": 3780,
      "20": 3781,
      "86": 3782,
      "95": 3783,
      "Any": 3784,
      "Does": 3785,
      "He": 3786,
      "Ok": 3787,
      "Sorry": 3788,
      "Taxi": 3789,
      "af": 3790,
      "bly": 3791,
      "back": 3792,
      "bag": 3793,
      "ches": 3794,
      "cient": 3795,
      "cover": 3796,
      "fect": 3797,
      "gest": 3798,
      "hold": 3799,
      "ixt": 3800,
      "meal": 3801,
      "no": 3802,
      "ply": 3803,
      "pose": 3804,
      "ration": 3805,
      "set": 3806,
      "ted": 3807,
      "uation": 3808,
      "ugg": 3809,
      "virus": 3810,
      "you": 3811,
      "Ġest": 3812,
      "Ġtough": 3813,
      "Ġtag": 3814,
      "Ġsearch": 3815,
      "Ġward": 3816,
      "Ġwestern": 3817,
      "Ġmic": 3818,
      "Ġmass": 3819,
      "Ġcuis": 3820,
      "ones": 3821,
      "onese": 3822,
      "eral": 3823,
      "Ġdr": 3824,
      "Ġded": 3825,
      "Ġdum": 3826,
      "anilla": 3827,
      "Ġlay": 3828,
      "Ġlaz": 3829,
      "Ġpo": 3830,
      "Ġpear": 3831,
      "Ġgall": 3832,
      "section": 3833,
      "Ġoptions": 3834,
      "Ġthirst": 3835,
      "atul": 3836,
      "led": 3837,
      "Ġbean": 3838,
      "Ġbecome": 3839,
      "Ġmeg": 3840,
      "ĠHilton": 3841,
      "ĠOut": 3842,
      "ĠOff": 3843,
      "ĠAd": 3844,
      "Ġstere": 3845,
      "Ġstret": 3846,
      "ĠSer": 3847,
      "Ġgod": 3848,
      "ĠCD": 3849,
      "ĠCant": 3850,
      "Ġplain": 3851,
      "ĠMart": 3852,
      "Ġshot": 3853,
      "Ġbump": 3854,
      "Ġjew": 3855,
      "Ġjump": 3856,
      "urch": 3857,
      "Ġorig": 3858,
      "Ġknows": 3859,
      "Ġmum": 3860,
      "iles": 3861,
      "ĠLin": 3862,
      "Ġtips": 3863,
      "Ġasleep": 3864,
      "Ġupstairs": 3865,
      "ulous": 3866,
      "estyle": 3867,
      "elf": 3868,
      "ĠFive": 3869,
      "ĠFair": 3870,
      "ĠFollow": 3871,
      "ĠFoods": 3872,
      "Ġloan": 3873,
      "ĠWhite": 3874,
      "Ġnovel": 3875,
      "ĠEl": 3876,
      "ĠEast": 3877,
      "Ġsurely": 3878,
      "Ġeveryday": 3879,
      "ushes": 3880,
      "Ġflea": 3881,
      "Ġflower": 3882,
      "agon": 3883,
      "ipes": 3884,
      "Ġ32": 3885,
      "Ġhimself": 3886,
      "Ġplayed": 3887,
      "Ġcooker": 3888,
      "Ġspecially": 3889,
      "Ġkeeping": 3890,
      "Ġboiled": 3891,
      "Ġschools": 3892,
      "Ġearrings": 3893,
      "Ġbeauty": 3894,
      "Ġrealize": 3895,
      "Ġgrown": 3896,
      "Ġextreme": 3897,
      "Ġspending": 3898,
      "Ġperfectly": 3899,
      "Ġstranger": 3900,
      "Ġsixty": 3901,
      "Ġdiscuss": 3902,
      "Who": 3903,
      "Ġsleepy": 3904,
      "ĠWhole": 3905,
      "ĠAnn": 3906,
      "ĠPerfect": 3907,
      "Ġclosed": 3908,
      "Ġsinging": 3909,
      "Ġsimply": 3910,
      "Ġfiles": 3911,
      "Ġfilms": 3912,
      "fortunately": 3913,
      "Ġdishwas": 3914,
      "Ġpolicy": 3915,
      "Ġ120": 3916,
      "Ġfashionable": 3917,
      "Ġvacant": 3918,
      "Ġsmells": 3919,
      "ĠBring": 3920,
      "Ġappetite": 3921,
      "plings": 3922,
      "Ġsilver": 3923,
      "Ġintersection": 3924,
      "Ġnutr": 3925,
      "ĠReg": 3926,
      "Ġwheel": 3927,
      "Ġhurts": 3928,
      "Ġdamage": 3929,
      "Ġrecords": 3930,
      "Ġzoo": 3931,
      "smoking": 3932,
      "Ġbreath": 3933,
      "ĠQu": 3934,
      "Ġanimal": 3935,
      "uctions": 3936,
      "inety": 3937,
      "Ġdocuments": 3938,
      "Ġbleeding": 3939,
      "ĠIndian": 3940,
      "Ġseparate": 3941,
      "ĠDrive": 3942,
      "Ġfrozen": 3943,
      "Ġprograms": 3944,
      "Ġemergency": 3945,
      "iences": 3946,
      "Ġservices": 3947,
      "ĠOaks": 3948,
      "Ġbecoming": 3949,
      "Ġcashmere": 3950,
      "Ġmillion": 3951,
      "ĠSusan": 3952,
      "ĠRestaurant": 3953,
      "Ġcosmetics": 3954,
      "Ġlazy": 3955,
      "ĠOffice": 3956,
      "ĠCantonese": 3957,
      "Ġorigin": 3958,
      "40": 3959,
      "Shall": 3960,
      "Then": 3961,
      "bile": 3962,
      "cet": 3963,
      "cell": 3964,
      "char": 3965,
      "cohol": 3966,
      "fa": 3967,
      "iol": 3968,
      "nel": 3969,
      "pa": 3970,
      "unt": 3971,
      "what": 3972,
      "Ġ/": 3973,
      "ĠX": 3974,
      "ini": 3975,
      "Ġsight": 3976,
      "Ġsizes": 3977,
      "Ġwest": 3978,
      "Ġchat": 3979,
      "Ġcart": 3980,
      "Ġcreat": 3981,
      "Ġig": 3982,
      "Ġill": 3983,
      "Ġbeat": 3984,
      "Ġbaking": 3985,
      "Ġfau": 3986,
      "Ġfancy": 3987,
      "Ġfelt": 3988,
      "Ġdirty": 3989,
      "orth": 3990,
      "Ġlit": 3991,
      "Ġlines": 3992,
      "Ġpor": 3993,
      "Ġgen": 3994,
      "Ġgain": 3995,
      "Ġniece": 3996,
      "Ġitem": 3997,
      "owder": 3998,
      "ĠToo": 3999
    },
    "merges": [
      [
        "Ġ",
        "t"
      ],
      [
        "Ġ",
        "."
      ],
      [
        "Ġ",
        "@"
      ],
      [
        "Ġ",
        "a"
      ],
      [
        "o",
        "u"
      ],
      [
        "h",
        "e"
      ],
      [
        "i",
        "n"
      ],
      [
        "Ġ",
        "s"
      ],
      [
        "r",
        "e"
      ],
      [
        "Ġ",
        "I"
      ],
      [
        "Ġ",
        ","
      ],
      [
        "h",
        "a"
      ],
      [
        "Ġ",
        "w"
      ],
      [
        "Ġ",
        "y"
      ],
      [
        "Ġy",
        "ou"
      ],
      [
        "Ġt",
        "he"
      ],
      [
        "Ġ",
        "m"
      ],
      [
        "Ġ",
        "c"
      ],
      [
        "Ġ",
        "?"
      ],
      [
        "o",
        "n"
      ],
      [
        "Ġ",
        "i"
      ],
      [
        "Ġ",
        "b"
      ],
      [
        "l",
        "l"
      ],
      [
        "e",
        "r"
      ],
      [
        "Ġt",
        "o"
      ],
      [
        "Ġ",
        "f"
      ],
      [
        "Ġ",
        "d"
      ],
      [
        "o",
        "r"
      ],
      [
        "a",
        "n"
      ],
      [
        "Ġ",
        "l"
      ],
      [
        "in",
        "g"
      ],
      [
        "Ġ",
        "p"
      ],
      [
        "e",
        "s"
      ],
      [
        "Ġ",
        "g"
      ],
      [
        "ha",
        "t"
      ],
      [
        "v",
        "e"
      ],
      [
        "n",
        "d"
      ],
      [
        "e",
        "t"
      ],
      [
        "Ġ",
        "n"
      ],
      [
        "Ġi",
        "t"
      ],
      [
        "o",
        "w"
      ],
      [
        "o",
        "m"
      ],
      [
        "Ġ",
        "T"
      ],
      [
        "e",
        "a"
      ],
      [
        "Ġ",
        "W"
      ],
      [
        "i",
        "t"
      ],
      [
        "k",
        "e"
      ],
      [
        "s",
        "e"
      ],
      [
        "Ġ",
        "o"
      ],
      [
        "Ġ",
        "ha"
      ],
      [
        "s",
        "t"
      ],
      [
        "Ġt",
        "h"
      ],
      [
        "e",
        "n"
      ],
      [
        "a",
        "y"
      ],
      [
        "Ġi",
        "s"
      ],
      [
        "a",
        "r"
      ],
      [
        "Ġ",
        "on"
      ],
      [
        "o",
        "o"
      ],
      [
        "Ġ",
        "Y"
      ],
      [
        "'",
        "s"
      ],
      [
        "Ġa",
        "nd"
      ],
      [
        "i",
        "s"
      ],
      [
        "Ġ",
        "in"
      ],
      [
        "i",
        "c"
      ],
      [
        "Ġo",
        "f"
      ],
      [
        "Ġf",
        "or"
      ],
      [
        "č",
        "Ċ"
      ],
      [
        "Ġ",
        "čĊ"
      ],
      [
        "a",
        "t"
      ],
      [
        "l",
        "e"
      ],
      [
        "l",
        "d"
      ],
      [
        "o",
        "t"
      ],
      [
        "â",
        "Ģ"
      ],
      [
        "Ġ",
        "âĢ"
      ],
      [
        "Ġha",
        "ve"
      ],
      [
        "e",
        "d"
      ],
      [
        "ĠâĢ",
        "Ļ"
      ],
      [
        "Ġd",
        "o"
      ],
      [
        "g",
        "h"
      ],
      [
        "u",
        "t"
      ],
      [
        "Ġ",
        "re"
      ],
      [
        "Ġ",
        "he"
      ],
      [
        "Ġl",
        "i"
      ],
      [
        "Ġb",
        "e"
      ],
      [
        "Ġm",
        "e"
      ],
      [
        "Ġ",
        "h"
      ],
      [
        "ou",
        "ld"
      ],
      [
        "Ġt",
        "hat"
      ],
      [
        "Ġw",
        "e"
      ],
      [
        "Ġ",
        "H"
      ],
      [
        "r",
        "i"
      ],
      [
        "gh",
        "t"
      ],
      [
        "Ġ",
        "!"
      ],
      [
        "Ġ",
        "O"
      ],
      [
        "v",
        "er"
      ],
      [
        "'",
        "t"
      ],
      [
        "Ġc",
        "an"
      ],
      [
        "om",
        "e"
      ],
      [
        "Ġa",
        "re"
      ],
      [
        "Ġ",
        "e"
      ],
      [
        "Ġ",
        "A"
      ],
      [
        "Ġs",
        "t"
      ],
      [
        "i",
        "r"
      ],
      [
        "ou",
        "t"
      ],
      [
        "Ġli",
        "ke"
      ],
      [
        "Ġ",
        "S"
      ],
      [
        "Ġyou",
        "r"
      ],
      [
        "ĠI",
        "t"
      ],
      [
        "c",
        "h"
      ],
      [
        "Ġ",
        "u"
      ],
      [
        "a",
        "l"
      ],
      [
        "a",
        "ll"
      ],
      [
        "r",
        "o"
      ],
      [
        "Ġn",
        "e"
      ],
      [
        "i",
        "ll"
      ],
      [
        "i",
        "d"
      ],
      [
        "Ġa",
        "n"
      ],
      [
        "e",
        "ll"
      ],
      [
        "ĠT",
        "he"
      ],
      [
        "Ġg",
        "o"
      ],
      [
        "Ġth",
        "is"
      ],
      [
        "a",
        "ke"
      ],
      [
        "a",
        "s"
      ],
      [
        "ĠY",
        "ou"
      ],
      [
        "Ġ",
        "C"
      ],
      [
        "Ġ",
        "k"
      ],
      [
        "ha",
        "n"
      ],
      [
        "Ġp",
        "l"
      ],
      [
        "a",
        "d"
      ],
      [
        "oo",
        "d"
      ],
      [
        "en",
        "t"
      ],
      [
        "an",
        "t"
      ],
      [
        "Ġm",
        "y"
      ],
      [
        "Ġg",
        "et"
      ],
      [
        "l",
        "y"
      ],
      [
        "Ġ",
        "D"
      ],
      [
        "Ġ",
        "N"
      ],
      [
        "a",
        "c"
      ],
      [
        "e",
        "e"
      ],
      [
        "ĠW",
        "hat"
      ],
      [
        "ĠY",
        "es"
      ],
      [
        "it",
        "h"
      ],
      [
        "oo",
        "k"
      ],
      [
        "u",
        "st"
      ],
      [
        "r",
        "y"
      ],
      [
        "Ġ",
        "M"
      ],
      [
        "in",
        "k"
      ],
      [
        "m",
        "e"
      ],
      [
        "Ġs",
        "h"
      ],
      [
        "Ġw",
        "ith"
      ],
      [
        "Ġon",
        "e"
      ],
      [
        "Ġa",
        "b"
      ],
      [
        "Ġa",
        "t"
      ],
      [
        "'",
        "ll"
      ],
      [
        "i",
        "on"
      ],
      [
        "t",
        "er"
      ],
      [
        "'",
        "m"
      ],
      [
        "ea",
        "se"
      ],
      [
        "Ġb",
        "u"
      ],
      [
        "Ġd",
        "on"
      ],
      [
        "Ġ",
        "B"
      ],
      [
        "Ġs",
        "o"
      ],
      [
        "Ġ",
        "j"
      ],
      [
        "Ġs",
        "ome"
      ],
      [
        "Ġab",
        "out"
      ],
      [
        "u",
        "r"
      ],
      [
        "Ġw",
        "ill"
      ],
      [
        "ver",
        "y"
      ],
      [
        "u",
        "re"
      ],
      [
        "ou",
        "r"
      ],
      [
        "Ġthe",
        "re"
      ],
      [
        "Ġw",
        "ant"
      ],
      [
        "han",
        "k"
      ],
      [
        "t",
        "h"
      ],
      [
        "Ġth",
        "ink"
      ],
      [
        "ri",
        "ght"
      ],
      [
        "ĠT",
        "hat"
      ],
      [
        "o",
        "p"
      ],
      [
        "all",
        "y"
      ],
      [
        "Ġn",
        "ot"
      ],
      [
        "in",
        "d"
      ],
      [
        "ĠH",
        "ow"
      ],
      [
        "Ġk",
        "n"
      ],
      [
        "r",
        "a"
      ],
      [
        "Ġ",
        "or"
      ],
      [
        "b",
        "le"
      ],
      [
        "e",
        "c"
      ],
      [
        "ic",
        "e"
      ],
      [
        "Ġkn",
        "ow"
      ],
      [
        "ĠN",
        "o"
      ],
      [
        "Ġt",
        "ake"
      ],
      [
        "Ġpl",
        "ease"
      ],
      [
        "Ġ",
        "right"
      ],
      [
        "Ġm",
        "u"
      ],
      [
        "Ġb",
        "ut"
      ],
      [
        "o",
        "re"
      ],
      [
        "e",
        "re"
      ],
      [
        "Ġan",
        "y"
      ],
      [
        "i",
        "l"
      ],
      [
        "Ġl",
        "ook"
      ],
      [
        "Ġs",
        "ee"
      ],
      [
        "Ġhe",
        "re"
      ],
      [
        "Ġw",
        "ould"
      ],
      [
        "Ġne",
        "ed"
      ],
      [
        "c",
        "e"
      ],
      [
        "Ġw",
        "hat"
      ],
      [
        "he",
        "r"
      ],
      [
        "Ġ",
        "L"
      ],
      [
        "Ġmu",
        "ch"
      ],
      [
        "ĠT",
        "hank"
      ],
      [
        "ĠW",
        "e"
      ],
      [
        "Ġj",
        "ust"
      ],
      [
        "g",
        "e"
      ],
      [
        "i",
        "ve"
      ],
      [
        "i",
        "ght"
      ],
      [
        "Ġg",
        "ood"
      ],
      [
        "Ġa",
        "ll"
      ],
      [
        "Ġc",
        "o"
      ],
      [
        "ĠO",
        "h"
      ],
      [
        "in",
        "e"
      ],
      [
        "Ġa",
        "l"
      ],
      [
        "ea",
        "r"
      ],
      [
        "Ġt",
        "i"
      ],
      [
        "a",
        "st"
      ],
      [
        "ĠW",
        "ell"
      ],
      [
        "Ġa",
        "s"
      ],
      [
        "ĠD",
        "o"
      ],
      [
        "a",
        "m"
      ],
      [
        "n",
        "t"
      ],
      [
        "Ġw",
        "as"
      ],
      [
        "Ġ",
        "very"
      ],
      [
        "Ġs",
        "u"
      ],
      [
        "ar",
        "t"
      ],
      [
        "Ġto",
        "o"
      ],
      [
        "p",
        "p"
      ],
      [
        "Ġe",
        "x"
      ],
      [
        "l",
        "p"
      ],
      [
        "on",
        "e"
      ],
      [
        "Ġu",
        "p"
      ],
      [
        "u",
        "l"
      ],
      [
        "ac",
        "k"
      ],
      [
        "Ġp",
        "ro"
      ],
      [
        "Ġhe",
        "lp"
      ],
      [
        "Ġs",
        "p"
      ],
      [
        "f",
        "f"
      ],
      [
        "Ġ",
        "P"
      ],
      [
        "Ġ",
        "out"
      ],
      [
        "ou",
        "nd"
      ],
      [
        "Ġ",
        "G"
      ],
      [
        "Ġw",
        "h"
      ],
      [
        "on",
        "g"
      ],
      [
        "he",
        "n"
      ],
      [
        "he",
        "re"
      ],
      [
        "a",
        "in"
      ],
      [
        "Ġi",
        "f"
      ],
      [
        "es",
        "t"
      ],
      [
        "Ġthe",
        "y"
      ],
      [
        "Ġgo",
        "ing"
      ],
      [
        "Ġti",
        "me"
      ],
      [
        "Ġs",
        "a"
      ],
      [
        "q",
        "u"
      ],
      [
        "d",
        "ay"
      ],
      [
        "Ġre",
        "ally"
      ],
      [
        "ea",
        "t"
      ],
      [
        "c",
        "k"
      ],
      [
        "Ġf",
        "r"
      ],
      [
        "Ġw",
        "or"
      ],
      [
        "Ġc",
        "ar"
      ],
      [
        "Ġ",
        "r"
      ],
      [
        "ĠB",
        "ut"
      ],
      [
        "u",
        "m"
      ],
      [
        "Ġn",
        "ow"
      ],
      [
        "'",
        "re"
      ],
      [
        "e",
        "l"
      ],
      [
        "an",
        "d"
      ],
      [
        "i",
        "g"
      ],
      [
        "Ġsh",
        "ould"
      ],
      [
        "Ġc",
        "om"
      ],
      [
        "th",
        "ing"
      ],
      [
        "Ġ",
        "ro"
      ],
      [
        "ĠO",
        "K"
      ],
      [
        "i",
        "m"
      ],
      [
        "Ġs",
        "ir"
      ],
      [
        "Ġc",
        "h"
      ],
      [
        "er",
        "s"
      ],
      [
        "h",
        "ing"
      ],
      [
        "Ġ",
        "F"
      ],
      [
        "Ġa",
        "m"
      ],
      [
        "'",
        "d"
      ],
      [
        "e",
        "nd"
      ],
      [
        "ĠC",
        "an"
      ],
      [
        "m",
        "ent"
      ],
      [
        "Ġthe",
        "m"
      ],
      [
        "Ġbu",
        "y"
      ],
      [
        "es",
        "s"
      ],
      [
        "at",
        "e"
      ],
      [
        "Ġ",
        "1"
      ],
      [
        "Ġl",
        "o"
      ],
      [
        "Ġd",
        "id"
      ],
      [
        "it",
        "e"
      ],
      [
        "ĠW",
        "h"
      ],
      [
        "ic",
        "k"
      ],
      [
        "u",
        "n"
      ],
      [
        "ĠT",
        "h"
      ],
      [
        "Ġc",
        "l"
      ],
      [
        "e",
        "p"
      ],
      [
        "ĠL",
        "et"
      ],
      [
        "c",
        "t"
      ],
      [
        "Ġm",
        "ake"
      ],
      [
        "n",
        "ing"
      ],
      [
        "ow",
        "n"
      ],
      [
        "re",
        "at"
      ],
      [
        "k",
        "ing"
      ],
      [
        "ĠH",
        "ere"
      ],
      [
        "Ġ.",
        "."
      ],
      [
        "ĠI",
        "s"
      ],
      [
        "Ġh",
        "ow"
      ],
      [
        "om",
        "et"
      ],
      [
        "Ġbu",
        "s"
      ],
      [
        "Ġfr",
        "om"
      ],
      [
        "u",
        "se"
      ],
      [
        "or",
        "ry"
      ],
      [
        "Ġm",
        "ore"
      ],
      [
        "Ġa",
        "f"
      ],
      [
        "Ġc",
        "he"
      ],
      [
        "Ġ",
        "J"
      ],
      [
        "Ġ..",
        "."
      ],
      [
        "Ġof",
        "f"
      ],
      [
        "Ġt",
        "w"
      ],
      [
        "at",
        "ion"
      ],
      [
        "w",
        "ay"
      ],
      [
        "Ġn",
        "o"
      ],
      [
        "Ġne",
        "w"
      ],
      [
        "a",
        "ble"
      ],
      [
        "d",
        "er"
      ],
      [
        "re",
        "s"
      ],
      [
        "f",
        "t"
      ],
      [
        "Ġ",
        "qu"
      ],
      [
        "Ġm",
        "o"
      ],
      [
        "Ġg",
        "ot"
      ],
      [
        "ĠA",
        "nd"
      ],
      [
        "Ġd",
        "ay"
      ],
      [
        "Ġ",
        "R"
      ],
      [
        "a",
        "p"
      ],
      [
        "Ġp",
        "r"
      ],
      [
        "Ġthe",
        "n"
      ],
      [
        "ĠTh",
        "is"
      ],
      [
        "a",
        "re"
      ],
      [
        "Ġs",
        "omet"
      ],
      [
        "ou",
        "s"
      ],
      [
        "or",
        "t"
      ],
      [
        "s",
        "o"
      ],
      [
        "Ġb",
        "ack"
      ],
      [
        "Ġd",
        "i"
      ],
      [
        "re",
        "e"
      ],
      [
        "ur",
        "n"
      ],
      [
        "Ġt",
        "ry"
      ],
      [
        "Ġ",
        "our"
      ],
      [
        "Ġc",
        "on"
      ],
      [
        "v",
        "ing"
      ],
      [
        "Ġdo",
        "es"
      ],
      [
        "ĠS",
        "ure"
      ],
      [
        "Ġo",
        "ver"
      ],
      [
        "Ġu",
        "s"
      ],
      [
        "it",
        "t"
      ],
      [
        "'",
        "ve"
      ],
      [
        "ĠO",
        "k"
      ],
      [
        "ble",
        "m"
      ],
      [
        "Ġpro",
        "blem"
      ],
      [
        "Ġc",
        "all"
      ],
      [
        "b",
        "er"
      ],
      [
        "Ġ",
        "ll"
      ],
      [
        "Ġc",
        "ould"
      ],
      [
        "Ġb",
        "r"
      ],
      [
        "e",
        "w"
      ],
      [
        "Ġw",
        "ay"
      ],
      [
        "Ġ",
        "E"
      ],
      [
        "Ġm",
        "in"
      ],
      [
        "ve",
        "n"
      ],
      [
        "Ġm",
        "an"
      ],
      [
        "Ġm",
        "a"
      ],
      [
        "i",
        "z"
      ],
      [
        "Ġha",
        "s"
      ],
      [
        "Ġ",
        "v"
      ],
      [
        "Ġsomet",
        "hing"
      ],
      [
        "re",
        "d"
      ],
      [
        "ĠThe",
        "y"
      ],
      [
        "Ġw",
        "hen"
      ],
      [
        "Ġon",
        "ly"
      ],
      [
        "Ġf",
        "ind"
      ],
      [
        "ec",
        "t"
      ],
      [
        "Ġb",
        "y"
      ],
      [
        "ir",
        "st"
      ],
      [
        "Ġs",
        "ure"
      ],
      [
        "ou",
        "gh"
      ],
      [
        "Ġf",
        "ood"
      ],
      [
        "ĠThe",
        "re"
      ],
      [
        "Ġt",
        "ell"
      ],
      [
        "Ġc",
        "ome"
      ],
      [
        "Ġl",
        "ot"
      ],
      [
        "Ġu",
        "se"
      ],
      [
        "Ġ",
        "$"
      ],
      [
        "et",
        "ter"
      ],
      [
        "ar",
        "d"
      ],
      [
        "Ġmin",
        "ut"
      ],
      [
        "Ġ",
        "2"
      ],
      [
        "Ġin",
        "t"
      ],
      [
        "l",
        "f"
      ],
      [
        "o",
        "se"
      ],
      [
        "Ġ",
        "eat"
      ],
      [
        "Ġtw",
        "o"
      ],
      [
        "Ġk",
        "ind"
      ],
      [
        "Ġl",
        "ong"
      ],
      [
        "Ġto",
        "day"
      ],
      [
        "ic",
        "h"
      ],
      [
        "Ġany",
        "thing"
      ],
      [
        "Ġp",
        "ay"
      ],
      [
        "Ġa",
        "r"
      ],
      [
        "Ġth",
        "ing"
      ],
      [
        "0",
        "0"
      ],
      [
        "ĠThank",
        "s"
      ],
      [
        "Ġs",
        "orry"
      ],
      [
        "is",
        "h"
      ],
      [
        "t",
        "y"
      ],
      [
        "ou",
        "se"
      ],
      [
        "a",
        "it"
      ],
      [
        "Ġp",
        "re"
      ],
      [
        "at",
        "er"
      ],
      [
        "Ġro",
        "om"
      ],
      [
        "Ġw",
        "on"
      ],
      [
        "Ġa",
        "g"
      ],
      [
        "Ġal",
        "so"
      ],
      [
        "it",
        "y"
      ],
      [
        "o",
        "s"
      ],
      [
        "ea",
        "h"
      ],
      [
        "Ġs",
        "he"
      ],
      [
        "itt",
        "le"
      ],
      [
        "art",
        "ment"
      ],
      [
        "a",
        "b"
      ],
      [
        "Ġt",
        "r"
      ],
      [
        "Ġe",
        "very"
      ],
      [
        "u",
        "s"
      ],
      [
        "Ġl",
        "ittle"
      ],
      [
        "Ġ",
        "en"
      ],
      [
        "ĠC",
        "h"
      ],
      [
        "Ġhe",
        "r"
      ],
      [
        "ĠM",
        "ay"
      ],
      [
        "Ġg",
        "reat"
      ],
      [
        "ad",
        "y"
      ],
      [
        "Ġc",
        "our"
      ],
      [
        "Ġg",
        "ive"
      ],
      [
        "Ġwe",
        "ll"
      ],
      [
        "o",
        "l"
      ],
      [
        "Ġa",
        "p"
      ],
      [
        "ĠI",
        "f"
      ],
      [
        "Ġc",
        "han"
      ],
      [
        "Ġl",
        "et"
      ],
      [
        "ac",
        "e"
      ],
      [
        "Ġbe",
        "en"
      ],
      [
        "Ġ",
        "V"
      ],
      [
        "Ġb",
        "etter"
      ],
      [
        "Ġf",
        "l"
      ],
      [
        "f",
        "ul"
      ],
      [
        "ĠA",
        "re"
      ],
      [
        "Ġa",
        "pp"
      ],
      [
        "ea",
        "s"
      ],
      [
        "a",
        "g"
      ],
      [
        "ound",
        "s"
      ],
      [
        "Ġa",
        "d"
      ],
      [
        "Ġh",
        "ome"
      ],
      [
        "ĠWh",
        "y"
      ],
      [
        "Ġn",
        "ice"
      ],
      [
        "id",
        "e"
      ],
      [
        "as",
        "s"
      ],
      [
        "Ġcom",
        "p"
      ],
      [
        "b",
        "e"
      ],
      [
        "x",
        "t"
      ],
      [
        "ĠW",
        "ould"
      ],
      [
        "Ġcour",
        "se"
      ],
      [
        "Ġh",
        "ouse"
      ],
      [
        "c",
        "use"
      ],
      [
        "Ġ",
        "'"
      ],
      [
        "ll",
        "ar"
      ],
      [
        "Ġf",
        "irst"
      ],
      [
        "i",
        "e"
      ],
      [
        "Ġaf",
        "ter"
      ],
      [
        "Ġs",
        "m"
      ],
      [
        "Ġwe",
        "e"
      ],
      [
        "ou",
        "ght"
      ],
      [
        "i",
        "es"
      ],
      [
        "u",
        "ally"
      ],
      [
        "ĠA",
        "ll"
      ],
      [
        "ĠS",
        "o"
      ],
      [
        "es",
        "e"
      ],
      [
        "ĠH",
        "e"
      ],
      [
        "p",
        "en"
      ],
      [
        "Ġlook",
        "ing"
      ],
      [
        "one",
        "y"
      ],
      [
        "r",
        "ow"
      ],
      [
        "ac",
        "t"
      ],
      [
        "Ġor",
        "der"
      ],
      [
        "i",
        "al"
      ],
      [
        "Ġdo",
        "llar"
      ],
      [
        "x",
        "cuse"
      ],
      [
        "a",
        "me"
      ],
      [
        "Ġw",
        "here"
      ],
      [
        "Ġe",
        "l"
      ],
      [
        "Ġp",
        "e"
      ],
      [
        "a",
        "k"
      ],
      [
        "Ġ",
        "ke"
      ],
      [
        "Ġap",
        "artment"
      ],
      [
        "Ġm",
        "ad"
      ],
      [
        "Ġf",
        "ri"
      ],
      [
        "ĠD",
        "on"
      ],
      [
        "i",
        "p"
      ],
      [
        "t",
        "her"
      ],
      [
        "Ġd",
        "own"
      ],
      [
        "oo",
        "l"
      ],
      [
        "Ġm",
        "ay"
      ],
      [
        "Ġel",
        "se"
      ],
      [
        "Ġb",
        "l"
      ],
      [
        "a",
        "ve"
      ],
      [
        "er",
        "t"
      ],
      [
        "ĠY",
        "eah"
      ],
      [
        "g",
        "et"
      ],
      [
        "i",
        "st"
      ],
      [
        "Ġminut",
        "es"
      ],
      [
        "u",
        "e"
      ],
      [
        "res",
        "s"
      ],
      [
        "he",
        "s"
      ],
      [
        "a",
        "ge"
      ],
      [
        "Ġp",
        "er"
      ],
      [
        "ĠCh",
        "in"
      ],
      [
        "E",
        "xcuse"
      ],
      [
        "Ġm",
        "on"
      ],
      [
        "at",
        "ch"
      ],
      [
        "op",
        "le"
      ],
      [
        "or",
        "ning"
      ],
      [
        "ĠW",
        "here"
      ],
      [
        "ot",
        "her"
      ],
      [
        "ar",
        "k"
      ],
      [
        "l",
        "es"
      ],
      [
        "Ġg",
        "u"
      ],
      [
        "W",
        "hat"
      ],
      [
        "r",
        "ink"
      ],
      [
        "Ġt",
        "hank"
      ],
      [
        "Ġha",
        "d"
      ],
      [
        "ell",
        "o"
      ],
      [
        "Ġs",
        "ay"
      ],
      [
        "Ġp",
        "ut"
      ],
      [
        "Ġm",
        "orning"
      ],
      [
        "Ġwor",
        "k"
      ],
      [
        "Ġ",
        "3"
      ],
      [
        "Ġdollar",
        "s"
      ],
      [
        "u",
        "d"
      ],
      [
        "Ġne",
        "xt"
      ],
      [
        "ĠM",
        "y"
      ],
      [
        "g",
        "g"
      ],
      [
        "Ġsh",
        "op"
      ],
      [
        "Ġi",
        "d"
      ],
      [
        "i",
        "se"
      ],
      [
        "Ġd",
        "ri"
      ],
      [
        "Ġmon",
        "th"
      ],
      [
        "f",
        "ore"
      ],
      [
        "Ġd",
        "rink"
      ],
      [
        "i",
        "le"
      ],
      [
        "Ġre",
        "c"
      ],
      [
        "Ġl",
        "e"
      ],
      [
        "ĠP",
        "l"
      ],
      [
        "Ġpe",
        "ople"
      ],
      [
        "m",
        "p"
      ],
      [
        "Ġw",
        "ait"
      ],
      [
        "iz",
        "e"
      ],
      [
        "Ġt",
        "ra"
      ],
      [
        "Ġw",
        "r"
      ],
      [
        "Ġman",
        "y"
      ],
      [
        "Ġh",
        "im"
      ],
      [
        "ĠC",
        "ould"
      ],
      [
        "n",
        "er"
      ],
      [
        "u",
        "an"
      ],
      [
        "Ġo",
        "ther"
      ],
      [
        "Ġme",
        "an"
      ],
      [
        "Ġthe",
        "se"
      ],
      [
        "Ġst",
        "op"
      ],
      [
        "Ġwee",
        "k"
      ],
      [
        "Ġs",
        "e"
      ],
      [
        "Ġbe",
        "fore"
      ],
      [
        "Ġy",
        "es"
      ],
      [
        "um",
        "ber"
      ],
      [
        "i",
        "x"
      ],
      [
        "n",
        "y"
      ],
      [
        "o",
        "st"
      ],
      [
        "Ġc",
        "ou"
      ],
      [
        "Ġl",
        "ea"
      ],
      [
        "Ġlo",
        "ve"
      ],
      [
        "ĠJ",
        "ust"
      ],
      [
        "u",
        "nd"
      ],
      [
        "Ġco",
        "l"
      ],
      [
        "Ġs",
        "er"
      ],
      [
        "ee",
        "l"
      ],
      [
        "C",
        "an"
      ],
      [
        "ĠPl",
        "ease"
      ],
      [
        "Ġf",
        "ew"
      ],
      [
        "ĠThe",
        "n"
      ],
      [
        "Ġid",
        "ea"
      ],
      [
        "Ġche",
        "ck"
      ],
      [
        "Ġs",
        "ha"
      ],
      [
        "Ġsh",
        "ow"
      ],
      [
        "as",
        "h"
      ],
      [
        "Ġpl",
        "ay"
      ],
      [
        "Ġchan",
        "ge"
      ],
      [
        "Ġn",
        "umber"
      ],
      [
        "Ġh",
        "our"
      ],
      [
        "Ġt",
        "urn"
      ],
      [
        "he",
        "d"
      ],
      [
        "Ġdid",
        "n"
      ],
      [
        "Ġm",
        "oney"
      ],
      [
        "t",
        "ing"
      ],
      [
        "Ġb",
        "ig"
      ],
      [
        "Ġpr",
        "ice"
      ],
      [
        "a",
        "v"
      ],
      [
        "Ġl",
        "ast"
      ],
      [
        "g",
        "er"
      ],
      [
        "al",
        "k"
      ],
      [
        "a",
        "ir"
      ],
      [
        "ĠOk",
        "ay"
      ],
      [
        "Ġd",
        "is"
      ],
      [
        "Ġthing",
        "s"
      ],
      [
        "Ġb",
        "re"
      ],
      [
        "ig",
        "n"
      ],
      [
        "Ġt",
        "han"
      ],
      [
        "Ġp",
        "h"
      ],
      [
        "ro",
        "om"
      ],
      [
        "ĠN",
        "ot"
      ],
      [
        "Ġco",
        "st"
      ],
      [
        "Ġst",
        "art"
      ],
      [
        "H",
        "ello"
      ],
      [
        "Ġc",
        "ook"
      ],
      [
        "Ġst",
        "ill"
      ],
      [
        "Ġcar",
        "d"
      ],
      [
        "Ġdoes",
        "n"
      ],
      [
        "Ġt",
        "ea"
      ],
      [
        "ea",
        "l"
      ],
      [
        "ra",
        "id"
      ],
      [
        "ul",
        "ar"
      ],
      [
        "Ġaf",
        "raid"
      ],
      [
        "c",
        "c"
      ],
      [
        "se",
        "lf"
      ],
      [
        "ĠG",
        "ood"
      ],
      [
        "Ġdi",
        "ff"
      ],
      [
        "c",
        "ome"
      ],
      [
        "ke",
        "d"
      ],
      [
        "Ġf",
        "eel"
      ],
      [
        "Ġne",
        "ver"
      ],
      [
        "Ġwe",
        "re"
      ],
      [
        "pen",
        "s"
      ],
      [
        "Ġf",
        "ine"
      ],
      [
        "Ġs",
        "w"
      ],
      [
        "Ġs",
        "ounds"
      ],
      [
        "Ġm",
        "ust"
      ],
      [
        "Ġsp",
        "ec"
      ],
      [
        "on",
        "d"
      ],
      [
        "Ġto",
        "m"
      ],
      [
        "or",
        "d"
      ],
      [
        "i",
        "gh"
      ],
      [
        "Ġlook",
        "s"
      ],
      [
        "Ġke",
        "ep"
      ],
      [
        "a",
        "il"
      ],
      [
        "a",
        "use"
      ],
      [
        "Ġb",
        "o"
      ],
      [
        "way",
        "s"
      ],
      [
        "Ġmad",
        "e"
      ],
      [
        "Ġcol",
        "or"
      ],
      [
        "ĠO",
        "f"
      ],
      [
        "Ġha",
        "pp"
      ],
      [
        "Ġre",
        "ady"
      ],
      [
        "ĠS",
        "t"
      ],
      [
        "ĠChin",
        "ese"
      ],
      [
        "i",
        "ld"
      ],
      [
        "Ġal",
        "ways"
      ],
      [
        "ll",
        "y"
      ],
      [
        "or",
        "row"
      ],
      [
        "Ġu",
        "n"
      ],
      [
        "Ġ",
        "5"
      ],
      [
        "Ġt",
        "able"
      ],
      [
        "Ġth",
        "ree"
      ],
      [
        "Ġre",
        "nt"
      ],
      [
        "Ġag",
        "ain"
      ],
      [
        "m",
        "m"
      ],
      [
        "Ġd",
        "in"
      ],
      [
        "ea",
        "k"
      ],
      [
        "Ġint",
        "o"
      ],
      [
        "p",
        "er"
      ],
      [
        "ch",
        "ool"
      ],
      [
        "Ġha",
        "r"
      ],
      [
        "ĠS",
        "he"
      ],
      [
        "ap",
        "er"
      ],
      [
        "Ġm",
        "ind"
      ],
      [
        "ĠV",
        "e"
      ],
      [
        "i",
        "ft"
      ],
      [
        "pens",
        "ive"
      ],
      [
        "in",
        "t"
      ],
      [
        "an",
        "s"
      ],
      [
        "an",
        "ce"
      ],
      [
        "Ġm",
        "om"
      ],
      [
        "Ġar",
        "ound"
      ],
      [
        "Ġfri",
        "end"
      ],
      [
        "o",
        "es"
      ],
      [
        "p",
        "ing"
      ],
      [
        "Ġ",
        "U"
      ],
      [
        "Ġs",
        "chool"
      ],
      [
        "Ġc",
        "are"
      ],
      [
        "i",
        "f"
      ],
      [
        "re",
        "et"
      ],
      [
        "Ġb",
        "ot"
      ],
      [
        "Ġle",
        "ft"
      ],
      [
        "Ġspec",
        "ial"
      ],
      [
        "m",
        "s"
      ],
      [
        "Ġf",
        "in"
      ],
      [
        "ĠW",
        "hen"
      ],
      [
        "Ġo",
        "ld"
      ],
      [
        "Ġh",
        "ot"
      ],
      [
        "ent",
        "s"
      ],
      [
        "i",
        "ous"
      ],
      [
        "Ġy",
        "ear"
      ],
      [
        "Ġb",
        "it"
      ],
      [
        "Ġb",
        "est"
      ],
      [
        "Ġqu",
        "ite"
      ],
      [
        "Ġs",
        "ize"
      ],
      [
        "ff",
        "ee"
      ],
      [
        "o",
        "ck"
      ],
      [
        "Ġ",
        "K"
      ],
      [
        "Ġs",
        "al"
      ],
      [
        "ke",
        "n"
      ],
      [
        "Ġis",
        "n"
      ],
      [
        "Ġre",
        "d"
      ],
      [
        "Ġex",
        "pensive"
      ],
      [
        "Ġbr",
        "ing"
      ],
      [
        "i",
        "an"
      ],
      [
        "Ġn",
        "ame"
      ],
      [
        "Ġwh",
        "o"
      ],
      [
        "ert",
        "ain"
      ],
      [
        "u",
        "p"
      ],
      [
        "ha",
        "r"
      ],
      [
        "nd",
        "er"
      ],
      [
        "ĠH",
        "ave"
      ],
      [
        "Ġsu",
        "it"
      ],
      [
        "Ġ",
        "ve"
      ],
      [
        "H",
        "ow"
      ],
      [
        "v",
        "es"
      ],
      [
        "Ġs",
        "k"
      ],
      [
        "Ġb",
        "ed"
      ],
      [
        "Ġp",
        "art"
      ],
      [
        "Ġpl",
        "ace"
      ],
      [
        "ere",
        "st"
      ],
      [
        "Ġtom",
        "orrow"
      ],
      [
        "a",
        "x"
      ],
      [
        "ĠN",
        "ow"
      ],
      [
        "Ġsa",
        "me"
      ],
      [
        "Ġph",
        "one"
      ],
      [
        "Ġy",
        "uan"
      ],
      [
        "Ġd",
        "el"
      ],
      [
        "Ġwr",
        "ong"
      ],
      [
        "n",
        "g"
      ],
      [
        "ĠD",
        "id"
      ],
      [
        "Ġwh",
        "y"
      ],
      [
        "p",
        "t"
      ],
      [
        "Ġc",
        "le"
      ],
      [
        "ir",
        "t"
      ],
      [
        "Ġm",
        "ight"
      ],
      [
        "ar",
        "y"
      ],
      [
        "Ġst",
        "ore"
      ],
      [
        "Ġu",
        "nder"
      ],
      [
        "Ġan",
        "other"
      ],
      [
        "Ġco",
        "ffee"
      ],
      [
        "Ġint",
        "erest"
      ],
      [
        "Ġb",
        "ad"
      ],
      [
        "Ġha",
        "nd"
      ],
      [
        "f",
        "er"
      ],
      [
        "ick",
        "et"
      ],
      [
        "Ġdiff",
        "ere"
      ],
      [
        "Ġdin",
        "ner"
      ],
      [
        "Ġre",
        "st"
      ],
      [
        "ĠA",
        "l"
      ],
      [
        "Ġas",
        "k"
      ],
      [
        "Ġmo",
        "st"
      ],
      [
        "Ġhar",
        "d"
      ],
      [
        "c",
        "l"
      ],
      [
        "p",
        "le"
      ],
      [
        "Ġd",
        "ec"
      ],
      [
        "Ġg",
        "l"
      ],
      [
        "Ġli",
        "ght"
      ],
      [
        "Ġcl",
        "ot"
      ],
      [
        "Ġen",
        "ough"
      ],
      [
        "G",
        "ood"
      ],
      [
        "Ġt",
        "icket"
      ],
      [
        "is",
        "s"
      ],
      [
        "Ġre",
        "ce"
      ],
      [
        "ĠO",
        "n"
      ],
      [
        "Ġbe",
        "c"
      ],
      [
        "Ġsm",
        "all"
      ],
      [
        "Ġwh",
        "ich"
      ],
      [
        "me",
        "nd"
      ],
      [
        "ĠMay",
        "be"
      ],
      [
        "p",
        "s"
      ],
      [
        "Ġs",
        "c"
      ],
      [
        "Ġin",
        "s"
      ],
      [
        "Ġsa",
        "le"
      ],
      [
        "Ġday",
        "s"
      ],
      [
        "Ġt",
        "on"
      ],
      [
        "ou",
        "nt"
      ],
      [
        "Ġb",
        "ought"
      ],
      [
        "Ġl",
        "ater"
      ],
      [
        "om",
        "mend"
      ],
      [
        "ertain",
        "ly"
      ],
      [
        "d",
        "y"
      ],
      [
        "Ġd",
        "ep"
      ],
      [
        "Ġrec",
        "ommend"
      ],
      [
        "Ġre",
        "s"
      ],
      [
        "Ġe",
        "ven"
      ],
      [
        "Ġ",
        "eas"
      ],
      [
        "Ġb",
        "ea"
      ],
      [
        "ĠA",
        "ny"
      ],
      [
        "ĠS",
        "orry"
      ],
      [
        "Ġr",
        "un"
      ],
      [
        "ct",
        "ually"
      ],
      [
        "ĠI",
        "n"
      ],
      [
        "t",
        "en"
      ],
      [
        "Ġt",
        "ast"
      ],
      [
        "Ġf",
        "ive"
      ],
      [
        "v",
        "ice"
      ],
      [
        "Ġw",
        "atch"
      ],
      [
        "Ġb",
        "ook"
      ],
      [
        "ĠW",
        "ill"
      ],
      [
        "Ġdo",
        "ing"
      ],
      [
        "Ġcomp",
        "ut"
      ],
      [
        "Ġshop",
        "ping"
      ],
      [
        "Ġ",
        "ear"
      ],
      [
        "Ġt",
        "ri"
      ],
      [
        "Ġwh",
        "ile"
      ],
      [
        "ĠR",
        "ea"
      ],
      [
        "u",
        "ck"
      ],
      [
        "Ġf",
        "ree"
      ],
      [
        "Ġl",
        "ate"
      ],
      [
        "Ġus",
        "ually"
      ],
      [
        "Ġwon",
        "der"
      ],
      [
        "Ġ",
        "6"
      ],
      [
        "Ġt",
        "en"
      ],
      [
        "Ġs",
        "end"
      ],
      [
        "Ġc",
        "a"
      ],
      [
        "Ġcle",
        "an"
      ],
      [
        "Ġton",
        "ight"
      ],
      [
        "l",
        "come"
      ],
      [
        "Ġs",
        "ec"
      ],
      [
        "Ġy",
        "et"
      ],
      [
        "it",
        "ion"
      ],
      [
        "Ġth",
        "ose"
      ],
      [
        "Ġn",
        "ear"
      ],
      [
        "ter",
        "n"
      ],
      [
        "Ġwor",
        "ry"
      ],
      [
        "D",
        "o"
      ],
      [
        "e",
        "f"
      ],
      [
        "o",
        "on"
      ],
      [
        "Ġ",
        "4"
      ],
      [
        "Ġn",
        "ight"
      ],
      [
        "Ġli",
        "st"
      ],
      [
        "Ġad",
        "d"
      ],
      [
        "Ġper",
        "f"
      ],
      [
        "Ġbec",
        "ause"
      ],
      [
        "y",
        "e"
      ],
      [
        "Ġbea",
        "ut"
      ],
      [
        "Ġw",
        "ater"
      ],
      [
        "Ġc",
        "ut"
      ],
      [
        "Ġhave",
        "n"
      ],
      [
        "ent",
        "y"
      ],
      [
        "ĠRea",
        "lly"
      ],
      [
        "o",
        "or"
      ],
      [
        "Ġthe",
        "ir"
      ],
      [
        "Ġi",
        "mp"
      ],
      [
        "or",
        "m"
      ],
      [
        "Ġp",
        "ick"
      ],
      [
        "Ġh",
        "is"
      ],
      [
        "Ġch",
        "o"
      ],
      [
        "er",
        "y"
      ],
      [
        "ct",
        "ion"
      ],
      [
        "Ġcomput",
        "er"
      ],
      [
        "Ġs",
        "ign"
      ],
      [
        "ĠYou",
        "r"
      ],
      [
        "Ġthank",
        "s"
      ],
      [
        "Ġa",
        "cc"
      ],
      [
        "ĠWh",
        "ich"
      ],
      [
        "Ġa",
        "ir"
      ],
      [
        "Ġs",
        "l"
      ],
      [
        "it",
        "c"
      ],
      [
        "Ġso",
        "on"
      ],
      [
        "ĠL",
        "ook"
      ],
      [
        "Ġgu",
        "ess"
      ],
      [
        "Ġ",
        "ri"
      ],
      [
        "Ġc",
        "har"
      ],
      [
        "Ġj",
        "o"
      ],
      [
        "Ġ1",
        "0"
      ],
      [
        "Ġpre",
        "t"
      ],
      [
        "Ġclot",
        "hes"
      ],
      [
        "m",
        "ber"
      ],
      [
        "Ġha",
        "ving"
      ],
      [
        "ic",
        "ken"
      ],
      [
        "at",
        "ed"
      ],
      [
        "Ġst",
        "ay"
      ],
      [
        "Ġget",
        "ting"
      ],
      [
        "Ġs",
        "ell"
      ],
      [
        "or",
        "k"
      ],
      [
        "Ġcon",
        "t"
      ],
      [
        "Ġbre",
        "ak"
      ],
      [
        "Ġs",
        "et"
      ],
      [
        "ic",
        "t"
      ],
      [
        "und",
        "red"
      ],
      [
        "M",
        "ay"
      ],
      [
        "Ġ",
        "ea"
      ],
      [
        "ou",
        "p"
      ],
      [
        "Ġha",
        "ir"
      ],
      [
        "Ġh",
        "undred"
      ],
      [
        "Ġ",
        "8"
      ],
      [
        "Ġt",
        "e"
      ],
      [
        "Ġd",
        "ress"
      ],
      [
        "Ġwe",
        "lcome"
      ],
      [
        "ĠM",
        "r"
      ],
      [
        "Ġsa",
        "id"
      ],
      [
        "Ġhapp",
        "en"
      ],
      [
        "Ġmom",
        "ent"
      ],
      [
        "a",
        "ur"
      ],
      [
        "d",
        "u"
      ],
      [
        "i",
        "ly"
      ],
      [
        "p",
        "e"
      ],
      [
        "Ġp",
        "ar"
      ],
      [
        "Ġh",
        "igh"
      ],
      [
        "Ġst",
        "y"
      ],
      [
        "Ġst",
        "ud"
      ],
      [
        "ff",
        "ic"
      ],
      [
        "Ġevery",
        "thing"
      ],
      [
        "av",
        "or"
      ],
      [
        "Ġve",
        "get"
      ],
      [
        "Ġpret",
        "ty"
      ],
      [
        "Ġst",
        "reet"
      ],
      [
        "me",
        "mber"
      ],
      [
        "Ġm",
        "il"
      ],
      [
        "Ġd",
        "es"
      ],
      [
        "Ġth",
        "ought"
      ],
      [
        "Ġdon",
        "e"
      ],
      [
        "m",
        "er"
      ],
      [
        "re",
        "ady"
      ],
      [
        "Ġw",
        "ear"
      ],
      [
        "Ġw",
        "alk"
      ],
      [
        "Ġre",
        "al"
      ],
      [
        "Ġal",
        "ready"
      ],
      [
        "ĠG",
        "o"
      ],
      [
        "Ġch",
        "icken"
      ],
      [
        "Ġmo",
        "ve"
      ],
      [
        "Ġdiffere",
        "nt"
      ],
      [
        "Ġ",
        "own"
      ],
      [
        "Ġw",
        "ine"
      ],
      [
        "Ġf",
        "ar"
      ],
      [
        "Ġo",
        "k"
      ],
      [
        "at",
        "her"
      ],
      [
        "i",
        "ful"
      ],
      [
        "o",
        "y"
      ],
      [
        "Ġ",
        "ra"
      ],
      [
        "Ġg",
        "r"
      ],
      [
        "Ġha",
        "lf"
      ],
      [
        "Ġea",
        "ch"
      ],
      [
        "I",
        "t"
      ],
      [
        "re",
        "n"
      ],
      [
        "Ġsu",
        "pp"
      ],
      [
        "Ġdri",
        "ve"
      ],
      [
        "Ġbeaut",
        "iful"
      ],
      [
        "H",
        "i"
      ],
      [
        "d",
        "e"
      ],
      [
        "Ġs",
        "oup"
      ],
      [
        "Ġb",
        "at"
      ],
      [
        "ver",
        "s"
      ],
      [
        "Ġoff",
        "er"
      ],
      [
        "Ġpre",
        "fer"
      ],
      [
        "n",
        "oon"
      ],
      [
        "an",
        "c"
      ],
      [
        "Ġl",
        "ar"
      ],
      [
        "Ġe",
        "ve"
      ],
      [
        "al",
        "th"
      ],
      [
        "ĠC",
        "ome"
      ],
      [
        "Ġafter",
        "noon"
      ],
      [
        "Ġtra",
        "in"
      ],
      [
        "aur",
        "ant"
      ],
      [
        "r",
        "ough"
      ],
      [
        "i",
        "ec"
      ],
      [
        "Ġw",
        "ind"
      ],
      [
        "Ġm",
        "eat"
      ],
      [
        "Ġf",
        "it"
      ],
      [
        "Ġp",
        "air"
      ],
      [
        "Ġre",
        "f"
      ],
      [
        "Ġre",
        "g"
      ],
      [
        "Ġh",
        "op"
      ],
      [
        "itc",
        "hen"
      ],
      [
        "b",
        "o"
      ],
      [
        "Ġf",
        "our"
      ],
      [
        "Ġth",
        "rough"
      ],
      [
        "Ġk",
        "itchen"
      ],
      [
        "nt",
        "il"
      ],
      [
        "u",
        "it"
      ],
      [
        "oo",
        "se"
      ],
      [
        "Ġhe",
        "alth"
      ],
      [
        "Ġpro",
        "du"
      ],
      [
        "Ġtra",
        "ffic"
      ],
      [
        "o",
        "g"
      ],
      [
        "Ġa",
        "way"
      ],
      [
        "Ġb",
        "ar"
      ],
      [
        "st",
        "and"
      ],
      [
        "Ġm",
        "en"
      ],
      [
        "on",
        "s"
      ],
      [
        "Ġp",
        "op"
      ],
      [
        "ul",
        "t"
      ],
      [
        "ĠG",
        "reat"
      ],
      [
        "ect",
        "ion"
      ],
      [
        "ip",
        "t"
      ],
      [
        "er",
        "c"
      ],
      [
        "Ġp",
        "ass"
      ],
      [
        "Ġof",
        "ten"
      ],
      [
        "Ġrece",
        "ipt"
      ],
      [
        "T",
        "he"
      ],
      [
        "Ġbe",
        "l"
      ],
      [
        "Ġcom",
        "es"
      ],
      [
        "Ġeve",
        "ning"
      ],
      [
        "Ġre",
        "p"
      ],
      [
        "Y",
        "ou"
      ],
      [
        "i",
        "ble"
      ],
      [
        "Ġm",
        "at"
      ],
      [
        "Ġdo",
        "g"
      ],
      [
        "Ġst",
        "ation"
      ],
      [
        "ĠC",
        "ertainly"
      ],
      [
        "Ġk",
        "id"
      ],
      [
        "Ġcom",
        "ing"
      ],
      [
        "Ġcl",
        "ass"
      ],
      [
        "Ġfl",
        "oor"
      ],
      [
        "ark",
        "et"
      ],
      [
        "o",
        "int"
      ],
      [
        "u",
        "b"
      ],
      [
        "Ġ",
        "7"
      ],
      [
        "Ġt",
        "ax"
      ],
      [
        "Ġf",
        "avor"
      ],
      [
        "Ġu",
        "ntil"
      ],
      [
        "Ġminut",
        "e"
      ],
      [
        "ie",
        "ve"
      ],
      [
        "Ġunder",
        "stand"
      ],
      [
        "Ġrest",
        "aurant"
      ],
      [
        "i",
        "a"
      ],
      [
        "k",
        "es"
      ],
      [
        "l",
        "ine"
      ],
      [
        "re",
        "am"
      ],
      [
        "an",
        "ge"
      ],
      [
        "et",
        "er"
      ],
      [
        "ĠW",
        "ow"
      ],
      [
        "Ġsu",
        "b"
      ],
      [
        "ĠT",
        "V"
      ],
      [
        "Ġre",
        "t"
      ],
      [
        "ir",
        "ty"
      ],
      [
        "Ġex",
        "t"
      ],
      [
        "Ġuse",
        "d"
      ],
      [
        "ab",
        "ly"
      ],
      [
        "se",
        "d"
      ],
      [
        "Ġsu",
        "ch"
      ],
      [
        "Ġex",
        "c"
      ],
      [
        "ab",
        "les"
      ],
      [
        "Ġlea",
        "ve"
      ],
      [
        "Ġsec",
        "ond"
      ],
      [
        "Ġc",
        "ash"
      ],
      [
        "Ġf",
        "u"
      ],
      [
        "an",
        "k"
      ],
      [
        "Ġre",
        "member"
      ],
      [
        "Ġp",
        "ost"
      ],
      [
        "Ġex",
        "erc"
      ],
      [
        "Ġsp",
        "end"
      ],
      [
        "ĠF",
        "or"
      ],
      [
        "red",
        "it"
      ],
      [
        "os",
        "s"
      ],
      [
        "ak",
        "es"
      ],
      [
        "Ġmay",
        "be"
      ],
      [
        "Ġb",
        "ill"
      ],
      [
        "Ġf",
        "ast"
      ],
      [
        "Ġf",
        "ix"
      ],
      [
        "Ġp",
        "ack"
      ],
      [
        "en",
        "ce"
      ],
      [
        "le",
        "ep"
      ],
      [
        "Ġst",
        "ra"
      ],
      [
        "Ġro",
        "ad"
      ],
      [
        "Ġeas",
        "y"
      ],
      [
        "Ġperf",
        "ect"
      ],
      [
        "e",
        "ver"
      ],
      [
        "i",
        "um"
      ],
      [
        "Ġc",
        "redit"
      ],
      [
        "Ġre",
        "ad"
      ],
      [
        "Ġh",
        "ur"
      ],
      [
        "Ġe",
        "gg"
      ],
      [
        "Ġoff",
        "ice"
      ],
      [
        "Ġgl",
        "ad"
      ],
      [
        "Ġf",
        "ound"
      ],
      [
        "Ġf",
        "urn"
      ],
      [
        "Ġp",
        "ers"
      ],
      [
        "Ġg",
        "ift"
      ],
      [
        "Ġon",
        "es"
      ],
      [
        "at",
        "or"
      ],
      [
        "Ġpl",
        "an"
      ],
      [
        "Ġat",
        "t"
      ],
      [
        "Ġthink",
        "ing"
      ],
      [
        "Ġser",
        "vice"
      ],
      [
        "Ġtast",
        "e"
      ],
      [
        "Ġchar",
        "ge"
      ],
      [
        "e",
        "ly"
      ],
      [
        "re",
        "en"
      ],
      [
        "Ġc",
        "r"
      ],
      [
        "Ġc",
        "or"
      ],
      [
        "Ġf",
        "am"
      ],
      [
        "Ġl",
        "ear"
      ],
      [
        "ere",
        "d"
      ],
      [
        "im",
        "es"
      ],
      [
        "Ġch",
        "oose"
      ],
      [
        "ĠF",
        "ine"
      ],
      [
        "Ġlo",
        "st"
      ],
      [
        "Ġbed",
        "room"
      ],
      [
        "Ġwind",
        "ow"
      ],
      [
        "W",
        "ould"
      ],
      [
        "b",
        "ably"
      ],
      [
        "o",
        "ld"
      ],
      [
        "u",
        "ff"
      ],
      [
        "Ġm",
        "iss"
      ],
      [
        "ing",
        "s"
      ],
      [
        "ion",
        "s"
      ],
      [
        "Ġsome",
        "one"
      ],
      [
        "Ġfr",
        "uit"
      ],
      [
        "Ġch",
        "ild"
      ],
      [
        "res",
        "h"
      ],
      [
        "eas",
        "ure"
      ],
      [
        "Ġsty",
        "le"
      ],
      [
        "a",
        "z"
      ],
      [
        "Ġst",
        "r"
      ],
      [
        "Ġsu",
        "gg"
      ],
      [
        "Ġex",
        "p"
      ],
      [
        "act",
        "ly"
      ],
      [
        "Ġsugg",
        "est"
      ],
      [
        "Ġs",
        "ix"
      ],
      [
        "Ġb",
        "ag"
      ],
      [
        "is",
        "hed"
      ],
      [
        "Ġst",
        "and"
      ],
      [
        "ter",
        "day"
      ],
      [
        "Ġr",
        "ather"
      ],
      [
        "un",
        "ch"
      ],
      [
        "Ġmad",
        "am"
      ],
      [
        "ĠAny",
        "thing"
      ],
      [
        "Ġlar",
        "ge"
      ],
      [
        "e",
        "et"
      ],
      [
        "l",
        "ic"
      ],
      [
        "Ġ",
        ")"
      ],
      [
        "Ġs",
        "ide"
      ],
      [
        "an",
        "g"
      ],
      [
        "Ġp",
        "ain"
      ],
      [
        "Ġp",
        "aper"
      ],
      [
        "Ġp",
        "iec"
      ],
      [
        "Ġli",
        "ving"
      ],
      [
        "Ġmy",
        "self"
      ],
      [
        "Ġsh",
        "oes"
      ],
      [
        "ĠR",
        "ight"
      ],
      [
        "Ġfriend",
        "s"
      ],
      [
        "if",
        "e"
      ],
      [
        "Ġbot",
        "t"
      ],
      [
        "Ġsupp",
        "ose"
      ],
      [
        "e",
        "y"
      ],
      [
        "e",
        "en"
      ],
      [
        "Ġs",
        "eat"
      ],
      [
        "Ġf",
        "resh"
      ],
      [
        "Ġp",
        "an"
      ],
      [
        "Ġo",
        "pen"
      ],
      [
        "Ġin",
        "st"
      ],
      [
        "Ġyour",
        "self"
      ],
      [
        "Ġsh",
        "irt"
      ],
      [
        "ĠB",
        "e"
      ],
      [
        "ous",
        "and"
      ],
      [
        "Ġyes",
        "terday"
      ],
      [
        "Ġyear",
        "s"
      ],
      [
        "cl",
        "ud"
      ],
      [
        "5",
        "0"
      ],
      [
        "i",
        "ent"
      ],
      [
        "m",
        "ost"
      ],
      [
        "Ġc",
        "ur"
      ],
      [
        "Ġb",
        "ro"
      ],
      [
        "Ġwe",
        "ight"
      ],
      [
        "ĠB",
        "y"
      ],
      [
        "Ġsp",
        "eak"
      ],
      [
        "Ġhour",
        "s"
      ],
      [
        "Ġbot",
        "h"
      ],
      [
        "Ġpop",
        "ular"
      ],
      [
        "o",
        "h"
      ],
      [
        "p",
        "h"
      ],
      [
        "Ġa",
        "v"
      ],
      [
        "Ġhe",
        "ard"
      ],
      [
        "al",
        "king"
      ],
      [
        "Ġwh",
        "ite"
      ],
      [
        "Ġpr",
        "om"
      ],
      [
        "Ġdis",
        "c"
      ],
      [
        "Ġhop",
        "e"
      ],
      [
        "T",
        "h"
      ],
      [
        "Ġ",
        "("
      ],
      [
        "Ġs",
        "it"
      ],
      [
        "Ġin",
        "clud"
      ],
      [
        "ic",
        "y"
      ],
      [
        "ic",
        "es"
      ],
      [
        "Ġdel",
        "ic"
      ],
      [
        "Ġmen",
        "u"
      ],
      [
        "A",
        "re"
      ],
      [
        "j",
        "oy"
      ],
      [
        "l",
        "et"
      ],
      [
        "Ġf",
        "ish"
      ],
      [
        "Ġli",
        "ve"
      ],
      [
        "Ġbe",
        "ef"
      ],
      [
        "Ġe",
        "le"
      ],
      [
        "al",
        "ity"
      ],
      [
        "Ġsee",
        "ms"
      ],
      [
        "Ġag",
        "o"
      ],
      [
        "Ġsal",
        "ad"
      ],
      [
        "mer",
        "ic"
      ],
      [
        "Ġbel",
        "ieve"
      ],
      [
        "f",
        "ast"
      ],
      [
        "y",
        "s"
      ],
      [
        "Ġ",
        "9"
      ],
      [
        "Ġto",
        "ld"
      ],
      [
        "Ġth",
        "ousand"
      ],
      [
        "Ġon",
        "line"
      ],
      [
        "ĠS",
        "h"
      ],
      [
        "un",
        "g"
      ],
      [
        "Ġtr",
        "ue"
      ],
      [
        "I",
        "s"
      ],
      [
        "d",
        "ing"
      ],
      [
        "i",
        "re"
      ],
      [
        "n",
        "a"
      ],
      [
        "o",
        "ll"
      ],
      [
        "Ġ",
        "\""
      ],
      [
        "Ġ",
        "-"
      ],
      [
        "Ġt",
        "er"
      ],
      [
        "in",
        "ce"
      ],
      [
        "Ġm",
        "eal"
      ],
      [
        "er",
        "v"
      ],
      [
        "Ġf",
        "ift"
      ],
      [
        "ad",
        "e"
      ],
      [
        "ĠD",
        "ad"
      ],
      [
        "Ġtw",
        "enty"
      ],
      [
        "Ġproblem",
        "s"
      ],
      [
        "Ġa",
        "ff"
      ],
      [
        "Ġg",
        "ir"
      ],
      [
        "it",
        "al"
      ],
      [
        "Ġbe",
        "er"
      ],
      [
        "Ġare",
        "n"
      ],
      [
        "ĠM",
        "om"
      ],
      [
        "ce",
        "pt"
      ],
      [
        "Ġlo",
        "c"
      ],
      [
        "Ġcall",
        "ed"
      ],
      [
        "Ġbl",
        "ack"
      ],
      [
        "get",
        "her"
      ],
      [
        "Ġpers",
        "on"
      ],
      [
        "Ġl",
        "ine"
      ],
      [
        "Ġp",
        "et"
      ],
      [
        "ĠA",
        "b"
      ],
      [
        "Ġ2",
        "0"
      ],
      [
        "ĠChin",
        "a"
      ],
      [
        "Ġext",
        "ra"
      ],
      [
        "W",
        "h"
      ],
      [
        "a",
        "u"
      ],
      [
        "s",
        "s"
      ],
      [
        "Ġc",
        "atch"
      ],
      [
        "ve",
        "l"
      ],
      [
        "ea",
        "d"
      ],
      [
        "ĠW",
        "ait"
      ],
      [
        "Ġth",
        "ough"
      ],
      [
        "Ġfor",
        "m"
      ],
      [
        "Ġma",
        "il"
      ],
      [
        "Ġbreak",
        "fast"
      ],
      [
        "Ġveget",
        "ables"
      ],
      [
        "Ġbat",
        "h"
      ],
      [
        "f",
        "orm"
      ],
      [
        "i",
        "er"
      ],
      [
        "i",
        "ate"
      ],
      [
        "Ġa",
        "c"
      ],
      [
        "Ġa",
        "ctually"
      ],
      [
        "Ġc",
        "up"
      ],
      [
        "Ġf",
        "un"
      ],
      [
        "ve",
        "d"
      ],
      [
        "Ġe",
        "ver"
      ],
      [
        "Ġst",
        "uff"
      ],
      [
        "ĠS",
        "ee"
      ],
      [
        "id",
        "es"
      ],
      [
        "Ġmu",
        "s"
      ],
      [
        "Ġpro",
        "bably"
      ],
      [
        "Ġdi",
        "et"
      ],
      [
        "us",
        "h"
      ],
      [
        "ĠV",
        "ery"
      ],
      [
        "Ġbo",
        "x"
      ],
      [
        "Ġinterest",
        "ed"
      ],
      [
        "Th",
        "is"
      ],
      [
        "e",
        "m"
      ],
      [
        "Ġb",
        "ir"
      ],
      [
        "Ġp",
        "ur"
      ],
      [
        "ow",
        "er"
      ],
      [
        "ĠA",
        "meric"
      ],
      [
        "ĠDo",
        "es"
      ],
      [
        "Ġen",
        "joy"
      ],
      [
        "Ġcook",
        "ing"
      ],
      [
        "ĠAl",
        "right"
      ],
      [
        "ĠOn",
        "e"
      ],
      [
        "Ġimp",
        "ort"
      ],
      [
        "Ġret",
        "urn"
      ],
      [
        "Ġstra",
        "ight"
      ],
      [
        "Ġs",
        "leep"
      ],
      [
        "it",
        "her"
      ],
      [
        "Ġsh",
        "ort"
      ],
      [
        "Ġbu",
        "ild"
      ],
      [
        "ess",
        "ert"
      ],
      [
        "ĠWh",
        "o"
      ],
      [
        "Ġfavor",
        "ite"
      ],
      [
        "i",
        "et"
      ],
      [
        "Ġt",
        "alk"
      ],
      [
        "Ġw",
        "ife"
      ],
      [
        "Ġd",
        "eal"
      ],
      [
        "Ġd",
        "essert"
      ],
      [
        "an",
        "y"
      ],
      [
        "ĠE",
        "very"
      ],
      [
        "W",
        "e"
      ],
      [
        "Ġw",
        "ar"
      ],
      [
        "Ġf",
        "ill"
      ],
      [
        "Ġth",
        "irty"
      ],
      [
        "at",
        "ur"
      ],
      [
        "Ġst",
        "eak"
      ],
      [
        "Ġso",
        "ft"
      ],
      [
        "Ġal",
        "most"
      ],
      [
        "Ġcou",
        "nt"
      ],
      [
        "ash",
        "ion"
      ],
      [
        "Ġmat",
        "ter"
      ],
      [
        "Ġexerc",
        "ise"
      ],
      [
        "he",
        "ad"
      ],
      [
        "Ġw",
        "ent"
      ],
      [
        "Ġto",
        "w"
      ],
      [
        "Ġl",
        "unch"
      ],
      [
        "ĠT",
        "o"
      ],
      [
        "ĠG",
        "et"
      ],
      [
        "Ġqu",
        "ick"
      ],
      [
        "Ġqu",
        "ality"
      ],
      [
        "a",
        "king"
      ],
      [
        "i",
        "ke"
      ],
      [
        "w",
        "here"
      ],
      [
        "Ġ",
        "hat"
      ],
      [
        "in",
        "s"
      ],
      [
        "ha",
        "ps"
      ],
      [
        "Ġc",
        "ream"
      ],
      [
        "Ġl",
        "uck"
      ],
      [
        "en",
        "se"
      ],
      [
        "Ġhe",
        "ar"
      ],
      [
        "Ġme",
        "et"
      ],
      [
        "ee",
        "p"
      ],
      [
        "Ġneed",
        "s"
      ],
      [
        "Ġche",
        "ap"
      ],
      [
        "Ġnew",
        "s"
      ],
      [
        "Ġsay",
        "s"
      ],
      [
        "tern",
        "et"
      ],
      [
        "i",
        "ally"
      ],
      [
        "p",
        "ort"
      ],
      [
        "Ġ",
        "es"
      ],
      [
        "Ġc",
        "at"
      ],
      [
        "Ġc",
        "ents"
      ],
      [
        "Ġl",
        "at"
      ],
      [
        "Ġe",
        "nd"
      ],
      [
        "ĠA",
        "n"
      ],
      [
        "ĠA",
        "ctually"
      ],
      [
        "Ġex",
        "actly"
      ],
      [
        "ĠP",
        "er"
      ],
      [
        "Ġcl",
        "ose"
      ],
      [
        "Ġcall",
        "ing"
      ],
      [
        "Ġcou",
        "ple"
      ],
      [
        "Ġtri",
        "ed"
      ],
      [
        "Ġmil",
        "k"
      ],
      [
        "B",
        "ut"
      ],
      [
        "c",
        "ol"
      ],
      [
        "r",
        "ic"
      ],
      [
        "t",
        "i"
      ],
      [
        "Ġto",
        "t"
      ],
      [
        "at",
        "ing"
      ],
      [
        "ra",
        "m"
      ],
      [
        "Ġwor",
        "king"
      ],
      [
        "Ġ5",
        "0"
      ],
      [
        "Ġhappen",
        "ed"
      ],
      [
        "Ġpar",
        "king"
      ],
      [
        "a",
        "ch"
      ],
      [
        "Ġw",
        "all"
      ],
      [
        "ĠT",
        "w"
      ],
      [
        "it",
        "ure"
      ],
      [
        "it",
        "ies"
      ],
      [
        "at",
        "es"
      ],
      [
        "Ġe",
        "ight"
      ],
      [
        "ust",
        "om"
      ],
      [
        "Ġcon",
        "s"
      ],
      [
        "Ġdis",
        "hes"
      ],
      [
        "Ġhapp",
        "y"
      ],
      [
        "Ġimport",
        "ant"
      ],
      [
        "n",
        "ter"
      ],
      [
        "Ġm",
        "ess"
      ],
      [
        "Ġbus",
        "y"
      ],
      [
        "Ġeat",
        "ing"
      ],
      [
        "Ġdelic",
        "ious"
      ],
      [
        "i",
        "vers"
      ],
      [
        "n",
        "ce"
      ],
      [
        "t",
        "on"
      ],
      [
        "Ġt",
        "y"
      ],
      [
        "Ġa",
        "head"
      ],
      [
        "Ġs",
        "ing"
      ],
      [
        "Ġp",
        "ark"
      ],
      [
        "Ġp",
        "oss"
      ],
      [
        "oo",
        "ked"
      ],
      [
        "Ġfor",
        "g"
      ],
      [
        "ĠA",
        "s"
      ],
      [
        "Ġbu",
        "r"
      ],
      [
        "nt",
        "s"
      ],
      [
        "Ġ1",
        "5"
      ],
      [
        "Ġbr",
        "and"
      ],
      [
        "ng",
        "l"
      ],
      [
        "Ġca",
        "se"
      ],
      [
        "Ġprodu",
        "ct"
      ],
      [
        "Ġfurn",
        "iture"
      ],
      [
        "H",
        "ey"
      ],
      [
        "s",
        "es"
      ],
      [
        "u",
        "al"
      ],
      [
        "Ġs",
        "im"
      ],
      [
        "Ġc",
        "ity"
      ],
      [
        "Ġf",
        "il"
      ],
      [
        "Ġp",
        "ot"
      ],
      [
        "ea",
        "ter"
      ],
      [
        "Ġon",
        "ce"
      ],
      [
        "ĠH",
        "i"
      ],
      [
        "id",
        "ent"
      ],
      [
        "Ġche",
        "aper"
      ],
      [
        "Ġma",
        "king"
      ],
      [
        "Ġdri",
        "ving"
      ],
      [
        "Ġjo",
        "b"
      ],
      [
        "Ġpiec",
        "e"
      ],
      [
        "oh",
        "n"
      ],
      [
        "C",
        "ould"
      ],
      [
        "e",
        "ed"
      ],
      [
        "m",
        "b"
      ],
      [
        "m",
        "es"
      ],
      [
        "o",
        "b"
      ],
      [
        "in",
        "ess"
      ],
      [
        "Ġs",
        "ur"
      ],
      [
        "on",
        "t"
      ],
      [
        "Ġi",
        "ce"
      ],
      [
        "Ġd",
        "ry"
      ],
      [
        "Ġp",
        "ict"
      ],
      [
        "ĠT",
        "ake"
      ],
      [
        "ke",
        "nd"
      ],
      [
        "en",
        "c"
      ],
      [
        "Ġin",
        "form"
      ],
      [
        "Ġre",
        "l"
      ],
      [
        "ĠO",
        "ur"
      ],
      [
        "Ġab",
        "le"
      ],
      [
        "ure",
        "s"
      ],
      [
        "Ġsu",
        "per"
      ],
      [
        "Ġar",
        "t"
      ],
      [
        "ag",
        "es"
      ],
      [
        "Ġwee",
        "kend"
      ],
      [
        "ĠHe",
        "y"
      ],
      [
        "Ġ3",
        "0"
      ],
      [
        "Ġsw",
        "eater"
      ],
      [
        "Ġfin",
        "ish"
      ],
      [
        "Ġinterest",
        "ing"
      ],
      [
        "Ġtax",
        "i"
      ],
      [
        "Ġpack",
        "age"
      ],
      [
        "Ġlear",
        "n"
      ],
      [
        "Ġprom",
        "ise"
      ],
      [
        "Ġaff",
        "ord"
      ],
      [
        "f",
        "ort"
      ],
      [
        "Ġto",
        "p"
      ],
      [
        "Ġto",
        "gether"
      ],
      [
        "or",
        "y"
      ],
      [
        "Ġit",
        "s"
      ],
      [
        "Ġwas",
        "h"
      ],
      [
        "Ġsa",
        "w"
      ],
      [
        "ĠE",
        "ngl"
      ],
      [
        "Ġkind",
        "s"
      ],
      [
        "Ġsw",
        "eet"
      ],
      [
        "Ġear",
        "ly"
      ],
      [
        "Ġcho",
        "ice"
      ],
      [
        "l",
        "ut"
      ],
      [
        "s",
        "ide"
      ],
      [
        "ĠS",
        "ounds"
      ],
      [
        "id",
        "ed"
      ],
      [
        "th",
        "day"
      ],
      [
        "Ġwould",
        "n"
      ],
      [
        "el",
        "s"
      ],
      [
        "Ġche",
        "ese"
      ],
      [
        "Ġtry",
        "ing"
      ],
      [
        "Ġma",
        "ch"
      ],
      [
        "Ġsk",
        "in"
      ],
      [
        "Ġbook",
        "s"
      ],
      [
        "Ġadd",
        "ress"
      ],
      [
        "Ġfu",
        "ll"
      ],
      [
        "Ġav",
        "ail"
      ],
      [
        "H",
        "ave"
      ],
      [
        "a",
        "i"
      ],
      [
        "a",
        "se"
      ],
      [
        "m",
        "ail"
      ],
      [
        "u",
        "ce"
      ],
      [
        "Ġt",
        "akes"
      ],
      [
        "Ġs",
        "n"
      ],
      [
        "Ġm",
        "ed"
      ],
      [
        "Ġm",
        "ain"
      ],
      [
        "Ġc",
        "ent"
      ],
      [
        "Ġd",
        "ish"
      ],
      [
        "Ġp",
        "ol"
      ],
      [
        "Ġg",
        "reen"
      ],
      [
        "Ġre",
        "m"
      ],
      [
        "Ġe",
        "ither"
      ],
      [
        "Ġj",
        "u"
      ],
      [
        "so",
        "lut"
      ],
      [
        "Ġcon",
        "ven"
      ],
      [
        "Ġcou",
        "nter"
      ],
      [
        "Ġegg",
        "s"
      ],
      [
        "Ġbuild",
        "ing"
      ],
      [
        "ĠEngl",
        "ish"
      ],
      [
        "Ġavail",
        "able"
      ],
      [
        "i",
        "ence"
      ],
      [
        "o",
        "ve"
      ],
      [
        "Ġp",
        "ast"
      ],
      [
        "ĠThe",
        "se"
      ],
      [
        "Ġgo",
        "es"
      ],
      [
        "Ġti",
        "mes"
      ],
      [
        "Ġbuy",
        "ing"
      ],
      [
        "Ġ1",
        "2"
      ],
      [
        "Ġsm",
        "o"
      ],
      [
        "Ġse",
        "ven"
      ],
      [
        "Ġpart",
        "ic"
      ],
      [
        "Ġter",
        "ri"
      ],
      [
        "Ġbir",
        "thday"
      ],
      [
        "Ġlat",
        "est"
      ],
      [
        "Ġt",
        "est"
      ],
      [
        "in",
        "es"
      ],
      [
        "Ġf",
        "ashion"
      ],
      [
        "Ġl",
        "a"
      ],
      [
        "Ġg",
        "as"
      ],
      [
        "ic",
        "al"
      ],
      [
        "ĠA",
        "f"
      ],
      [
        "ell",
        "ent"
      ],
      [
        "ĠN",
        "ew"
      ],
      [
        "Ġwas",
        "hing"
      ],
      [
        "Ġex",
        "am"
      ],
      [
        "iz",
        "z"
      ],
      [
        "Ġv",
        "ar"
      ],
      [
        "Ġtr",
        "ans"
      ],
      [
        "Ġapp",
        "oint"
      ],
      [
        "Ġbl",
        "ue"
      ],
      [
        "Ġte",
        "le"
      ],
      [
        "Ġhealth",
        "y"
      ],
      [
        "Ġhur",
        "ry"
      ],
      [
        "oll",
        "ow"
      ],
      [
        "Ġtot",
        "al"
      ],
      [
        "Ġposs",
        "ible"
      ],
      [
        "solut",
        "ely"
      ],
      [
        "f",
        "e"
      ],
      [
        "p",
        "ec"
      ],
      [
        "w",
        "ork"
      ],
      [
        "z",
        "en"
      ],
      [
        "ou",
        "ble"
      ],
      [
        "Ġm",
        "arket"
      ],
      [
        "Ġc",
        "am"
      ],
      [
        "or",
        "s"
      ],
      [
        "Ġin",
        "ternet"
      ],
      [
        "ĠH",
        "ello"
      ],
      [
        "ra",
        "p"
      ],
      [
        "Ġfr",
        "ont"
      ],
      [
        "Ġse",
        "ver"
      ],
      [
        "Ġcho",
        "col"
      ],
      [
        "g",
        "ar"
      ],
      [
        "r",
        "act"
      ],
      [
        "t",
        "e"
      ],
      [
        "Ġt",
        "alking"
      ],
      [
        "Ġyou",
        "ng"
      ],
      [
        "Ġo",
        "il"
      ],
      [
        "ent",
        "ion"
      ],
      [
        "Ġwant",
        "ed"
      ],
      [
        "Ġsa",
        "ve"
      ],
      [
        "ĠF",
        "ri"
      ],
      [
        "itt",
        "ing"
      ],
      [
        "Ġv",
        "ac"
      ],
      [
        "Ġsuppose",
        "d"
      ],
      [
        "Ġappoint",
        "ment"
      ],
      [
        "Ġsever",
        "al"
      ],
      [
        "i",
        "ew"
      ],
      [
        "l",
        "ing"
      ],
      [
        "m",
        "an"
      ],
      [
        "Ġs",
        "on"
      ],
      [
        "Ġs",
        "ince"
      ],
      [
        "Ġl",
        "ess"
      ],
      [
        "ĠA",
        "t"
      ],
      [
        "Ġget",
        "s"
      ],
      [
        "Ġwith",
        "out"
      ],
      [
        "ĠF",
        "irst"
      ],
      [
        "Ġbus",
        "iness"
      ],
      [
        "ĠJ",
        "ohn"
      ],
      [
        "Ġmo",
        "v"
      ],
      [
        "Ġma",
        "kes"
      ],
      [
        "os",
        "it"
      ],
      [
        "Ġwho",
        "le"
      ],
      [
        "Ġchild",
        "ren"
      ],
      [
        "Ġbott",
        "le"
      ],
      [
        "Ġbath",
        "room"
      ],
      [
        "ĠPer",
        "haps"
      ],
      [
        "Ġforg",
        "ot"
      ],
      [
        "pec",
        "ially"
      ],
      [
        "c",
        "ha"
      ],
      [
        "Ġ",
        "ent"
      ],
      [
        "re",
        "c"
      ],
      [
        "Ġc",
        "ustom"
      ],
      [
        "Ġb",
        "as"
      ],
      [
        "Ġb",
        "ank"
      ],
      [
        "Ġd",
        "e"
      ],
      [
        "Ġp",
        "ounds"
      ],
      [
        "ĠT",
        "om"
      ],
      [
        "Ġhe",
        "av"
      ],
      [
        "Ġpl",
        "easure"
      ],
      [
        "ĠM",
        "e"
      ],
      [
        "Ġco",
        "ld"
      ],
      [
        "Ġ1",
        "00"
      ],
      [
        "Ġwait",
        "ing"
      ],
      [
        "Ġok",
        "ay"
      ],
      [
        "ren",
        "ch"
      ],
      [
        "Ġkid",
        "s"
      ],
      [
        "Ġpartic",
        "ular"
      ],
      [
        "Ġchocol",
        "ate"
      ],
      [
        "Ġs",
        "and"
      ],
      [
        "Ġsp",
        "ace"
      ],
      [
        "eat",
        "her"
      ],
      [
        "ation",
        "s"
      ],
      [
        "Ġcon",
        "d"
      ],
      [
        "ard",
        "s"
      ],
      [
        "Ġapp",
        "rec"
      ],
      [
        "Ġmean",
        "s"
      ],
      [
        "Ġstart",
        "ed"
      ],
      [
        "ĠSt",
        "reet"
      ],
      [
        "Ġreg",
        "ular"
      ],
      [
        "bo",
        "dy"
      ],
      [
        "Ġsub",
        "way"
      ],
      [
        "Ġcor",
        "ner"
      ],
      [
        "Ġdisc",
        "ount"
      ],
      [
        "ĠAb",
        "out"
      ],
      [
        "Ġinform",
        "ation"
      ],
      [
        "n",
        "ess"
      ],
      [
        "Ġc",
        "ake"
      ],
      [
        "Ġb",
        "et"
      ],
      [
        "Ġd",
        "ear"
      ],
      [
        "it",
        "ing"
      ],
      [
        "Ġfor",
        "get"
      ],
      [
        "Ġor",
        "d"
      ],
      [
        "Ġco",
        "ll"
      ],
      [
        "Ġti",
        "red"
      ],
      [
        "Ġsa",
        "uce"
      ],
      [
        "Ġwor",
        "ld"
      ],
      [
        "Ġcl",
        "ear"
      ],
      [
        "Ġdi",
        "re"
      ],
      [
        "ĠE",
        "x"
      ],
      [
        "Ġsm",
        "ell"
      ],
      [
        "Ġlea",
        "st"
      ],
      [
        "Ġbre",
        "ad"
      ],
      [
        "Ġwonder",
        "ful"
      ],
      [
        "Ġju",
        "ice"
      ],
      [
        "ĠAf",
        "ter"
      ],
      [
        "c",
        "le"
      ],
      [
        "l",
        "s"
      ],
      [
        "w",
        "are"
      ],
      [
        "Ġs",
        "ection"
      ],
      [
        "Ġc",
        "ra"
      ],
      [
        "Ġl",
        "etter"
      ],
      [
        "Ġp",
        "ie"
      ],
      [
        "Ġre",
        "as"
      ],
      [
        "Ġbe",
        "g"
      ],
      [
        "ri",
        "ed"
      ],
      [
        "ĠB",
        "r"
      ],
      [
        "Ġsee",
        "m"
      ],
      [
        "Ġch",
        "op"
      ],
      [
        "ment",
        "s"
      ],
      [
        "Ġmo",
        "d"
      ],
      [
        "Ġapp",
        "et"
      ],
      [
        "Ġfri",
        "ed"
      ],
      [
        "Ġsha",
        "ll"
      ],
      [
        "Ġins",
        "ide"
      ],
      [
        "au",
        "ght"
      ],
      [
        "Ġcount",
        "ry"
      ],
      [
        "Ġheav",
        "y"
      ],
      [
        "W",
        "here"
      ],
      [
        "f",
        "ive"
      ],
      [
        "i",
        "o"
      ],
      [
        "p",
        "et"
      ],
      [
        "s",
        "h"
      ],
      [
        "Ġs",
        "ea"
      ],
      [
        "Ġd",
        "ro"
      ],
      [
        "es",
        "ides"
      ],
      [
        "Ġe",
        "y"
      ],
      [
        "ĠM",
        "ary"
      ],
      [
        "Ġal",
        "ong"
      ],
      [
        "pp",
        "ed"
      ],
      [
        "Ġout",
        "side"
      ],
      [
        "Ġqu",
        "est"
      ],
      [
        "Ġ2",
        "00"
      ],
      [
        "Ġag",
        "ree"
      ],
      [
        "os",
        "p"
      ],
      [
        "Ġwr",
        "ite"
      ],
      [
        "Ġdel",
        "i"
      ],
      [
        "Ġacc",
        "ident"
      ],
      [
        "Ġmus",
        "ic"
      ],
      [
        "Ġes",
        "pecially"
      ],
      [
        "ĠTw",
        "o"
      ],
      [
        "Ġconven",
        "ient"
      ],
      [
        "Ġcond",
        "ition"
      ],
      [
        "Ġapprec",
        "iate"
      ],
      [
        "b",
        "it"
      ],
      [
        "j",
        "ing"
      ],
      [
        "y",
        "st"
      ],
      [
        "Ġ",
        ";"
      ],
      [
        "ha",
        "ll"
      ],
      [
        "Ġw",
        "in"
      ],
      [
        "Ġy",
        "eah"
      ],
      [
        "Ġm",
        "ine"
      ],
      [
        "Ġf",
        "ig"
      ],
      [
        "ĠT",
        "ai"
      ],
      [
        "Ġh",
        "old"
      ],
      [
        "Ġh",
        "ung"
      ],
      [
        "ĠH",
        "mm"
      ],
      [
        "ĠS",
        "m"
      ],
      [
        "ro",
        "ss"
      ],
      [
        "ĠB",
        "ye"
      ],
      [
        "am",
        "es"
      ],
      [
        "ĠF",
        "rench"
      ],
      [
        "Ġpr",
        "act"
      ],
      [
        "Ġsomet",
        "imes"
      ],
      [
        "Ġar",
        "ri"
      ],
      [
        "Ġdri",
        "ver"
      ],
      [
        "Ġcare",
        "ful"
      ],
      [
        "Ġdec",
        "ided"
      ],
      [
        "Ġdes",
        "ign"
      ],
      [
        "atur",
        "day"
      ],
      [
        "ivers",
        "ity"
      ],
      [
        "ĠFri",
        "day"
      ],
      [
        "Ġhung",
        "ry"
      ],
      [
        "L",
        "et"
      ],
      [
        "c",
        "ri"
      ],
      [
        "m",
        "y"
      ],
      [
        "Ġc",
        "ool"
      ],
      [
        "Ġare",
        "a"
      ],
      [
        "Ġst",
        "ar"
      ],
      [
        "qu",
        "are"
      ],
      [
        "ck",
        "s"
      ],
      [
        "Ġr",
        "ice"
      ],
      [
        "Ġma",
        "g"
      ],
      [
        "ip",
        "e"
      ],
      [
        "Ġlove",
        "ly"
      ],
      [
        "Ġhot",
        "el"
      ],
      [
        "Ġsk",
        "irt"
      ],
      [
        "Ġgl",
        "ass"
      ],
      [
        "Ġres",
        "erv"
      ],
      [
        "Ġpain",
        "t"
      ],
      [
        "Ġfift",
        "y"
      ],
      [
        "Ġproduct",
        "s"
      ],
      [
        "Ġcam",
        "er"
      ],
      [
        "S",
        "o"
      ],
      [
        "b",
        "y"
      ],
      [
        "r",
        "ant"
      ],
      [
        "Ġw",
        "ish"
      ],
      [
        "Ġc",
        "ertainly"
      ],
      [
        "Ġto",
        "ast"
      ],
      [
        "Ġf",
        "at"
      ],
      [
        "ĠT",
        "ell"
      ],
      [
        "Ġhe",
        "ad"
      ],
      [
        "ĠS",
        "ome"
      ],
      [
        "Ġany",
        "way"
      ],
      [
        "ĠG",
        "ive"
      ],
      [
        "Ġlo",
        "se"
      ],
      [
        "Ġbl",
        "ock"
      ],
      [
        "Ġinst",
        "ead"
      ],
      [
        "Ġmach",
        "ine"
      ],
      [
        "izz",
        "a"
      ],
      [
        "O",
        "h"
      ],
      [
        "T",
        "hat"
      ],
      [
        "m",
        "on"
      ],
      [
        "r",
        "al"
      ],
      [
        "Ġs",
        "ound"
      ],
      [
        "Ġp",
        "are"
      ],
      [
        "ĠS",
        "aturday"
      ],
      [
        "ain",
        "s"
      ],
      [
        "Ġcar",
        "pet"
      ],
      [
        "end",
        "s"
      ],
      [
        "Ġv",
        "is"
      ],
      [
        "Ġmonth",
        "s"
      ],
      [
        "Ġdrink",
        "s"
      ],
      [
        "Ġse",
        "en"
      ],
      [
        "Ġcost",
        "s"
      ],
      [
        "Ġdiff",
        "ic"
      ],
      [
        "Ġri",
        "de"
      ],
      [
        "Ġpur",
        "cha"
      ],
      [
        "p",
        "l"
      ],
      [
        "Ġt",
        "aking"
      ],
      [
        "Ġf",
        "ollow"
      ],
      [
        "Ġg",
        "ame"
      ],
      [
        "Ġin",
        "v"
      ],
      [
        "Ġfor",
        "ty"
      ],
      [
        "ri",
        "ger"
      ],
      [
        "ir",
        "d"
      ],
      [
        "Ġsu",
        "n"
      ],
      [
        "Ġsp",
        "icy"
      ],
      [
        "Ġro",
        "ast"
      ],
      [
        "Ġcon",
        "n"
      ],
      [
        "00",
        "0"
      ],
      [
        "Ġad",
        "vice"
      ],
      [
        "Ġcomp",
        "any"
      ],
      [
        "cl",
        "ock"
      ],
      [
        "Ġdep",
        "osit"
      ],
      [
        "Ġlist",
        "en"
      ],
      [
        "Ġref",
        "riger"
      ],
      [
        "Wh",
        "y"
      ],
      [
        "Ġac",
        "cept"
      ],
      [
        "fort",
        "able"
      ],
      [
        "Ġmed",
        "ium"
      ],
      [
        "c",
        "es"
      ],
      [
        "c",
        "ess"
      ],
      [
        "f",
        "u"
      ],
      [
        "i",
        "ves"
      ],
      [
        "m",
        "it"
      ],
      [
        "Ġs",
        "il"
      ],
      [
        "Ġm",
        "ar"
      ],
      [
        "Ġf",
        "a"
      ],
      [
        "Ġp",
        "a"
      ],
      [
        "oo",
        "t"
      ],
      [
        "ĠY",
        "uan"
      ],
      [
        "ot",
        "h"
      ],
      [
        "Ġdo",
        "or"
      ],
      [
        "Ġbe",
        "ing"
      ],
      [
        "Ġe",
        "ye"
      ],
      [
        "ĠS",
        "omet"
      ],
      [
        "ent",
        "ly"
      ],
      [
        "ant",
        "s"
      ],
      [
        "Ġnot",
        "hing"
      ],
      [
        "ce",
        "l"
      ],
      [
        "Ġwas",
        "n"
      ],
      [
        "Ġpro",
        "g"
      ],
      [
        "ct",
        "or"
      ],
      [
        "ĠR",
        "o"
      ],
      [
        "Ġpr",
        "int"
      ],
      [
        "Ġcard",
        "s"
      ],
      [
        "Ġfin",
        "ished"
      ],
      [
        "Ġlight",
        "s"
      ],
      [
        "Ġres",
        "p"
      ],
      [
        "Ġmil",
        "es"
      ],
      [
        "Ġreg",
        "ist"
      ],
      [
        "Ġexc",
        "ellent"
      ],
      [
        "Ġfam",
        "ily"
      ],
      [
        "Ġreas",
        "on"
      ],
      [
        "aught",
        "er"
      ],
      [
        "Ġrefriger",
        "ator"
      ],
      [
        "l",
        "ess"
      ],
      [
        "w",
        "an"
      ],
      [
        "w",
        "ard"
      ],
      [
        "z",
        "y"
      ],
      [
        "Ġt",
        "reat"
      ],
      [
        "Ġa",
        "ut"
      ],
      [
        "Ġs",
        "ort"
      ],
      [
        "re",
        "t"
      ],
      [
        "Ġm",
        "id"
      ],
      [
        "Ġc",
        "ame"
      ],
      [
        "ea",
        "king"
      ],
      [
        "is",
        "ion"
      ],
      [
        "Ġin",
        "ter"
      ],
      [
        "Ġdo",
        "zen"
      ],
      [
        "Ġh",
        "oney"
      ],
      [
        "Ġh",
        "osp"
      ],
      [
        "ĠM",
        "ad"
      ],
      [
        "Ġtake",
        "n"
      ],
      [
        "Ġfood",
        "s"
      ],
      [
        "Ġchan",
        "g"
      ],
      [
        "Ġweek",
        "s"
      ],
      [
        "Ġbo",
        "dy"
      ],
      [
        "mm",
        "er"
      ],
      [
        "ĠU",
        "n"
      ],
      [
        "Ġrun",
        "ning"
      ],
      [
        "c",
        "ent"
      ],
      [
        "h",
        "ind"
      ],
      [
        "Ġd",
        "aughter"
      ],
      [
        "an",
        "ger"
      ],
      [
        "Ġl",
        "ease"
      ],
      [
        "Ġp",
        "oint"
      ],
      [
        "Ġp",
        "ub"
      ],
      [
        "Ġk",
        "il"
      ],
      [
        "Ġpl",
        "enty"
      ],
      [
        "ur",
        "ing"
      ],
      [
        "Ġwant",
        "s"
      ],
      [
        "Ġall",
        "ow"
      ],
      [
        "Ġas",
        "s"
      ],
      [
        "Ġsu",
        "gar"
      ],
      [
        "Ġro",
        "ll"
      ],
      [
        "ab",
        "y"
      ],
      [
        "Ġad",
        "v"
      ],
      [
        "Ġsha",
        "re"
      ],
      [
        "Ġsha",
        "pe"
      ],
      [
        "ph",
        "one"
      ],
      [
        "Ġcons",
        "id"
      ],
      [
        "ĠTai",
        "wan"
      ],
      [
        "b",
        "s"
      ],
      [
        "b",
        "ed"
      ],
      [
        "b",
        "ye"
      ],
      [
        "m",
        "ing"
      ],
      [
        "o",
        "e"
      ],
      [
        "p",
        "ed"
      ],
      [
        "ĠI",
        "D"
      ],
      [
        "Ġg",
        "ar"
      ],
      [
        "Ġg",
        "one"
      ],
      [
        "at",
        "oes"
      ],
      [
        "ĠH",
        "ot"
      ],
      [
        "Ġne",
        "igh"
      ],
      [
        "ac",
        "es"
      ],
      [
        "ĠM",
        "a"
      ],
      [
        "ĠM",
        "ac"
      ],
      [
        "ĠB",
        "ec"
      ],
      [
        "Ġas",
        "ked"
      ],
      [
        "ĠG",
        "r"
      ],
      [
        "Ġwor",
        "th"
      ],
      [
        "Ġ1",
        "3"
      ],
      [
        "Ġdi",
        "st"
      ],
      [
        "Ġfri",
        "es"
      ],
      [
        "Ġgu",
        "est"
      ],
      [
        "Ġser",
        "ve"
      ],
      [
        "Ġdiffere",
        "nce"
      ],
      [
        "Ġdep",
        "artment"
      ],
      [
        "Ġmess",
        "age"
      ],
      [
        "Ġneigh",
        "b"
      ],
      [
        "-",
        "-"
      ],
      [
        "H",
        "ere"
      ],
      [
        "c",
        "her"
      ],
      [
        "g",
        "ain"
      ],
      [
        "i",
        "v"
      ],
      [
        "Ġa",
        "ct"
      ],
      [
        "Ġc",
        "ell"
      ],
      [
        "Ġl",
        "ow"
      ],
      [
        "ic",
        "s"
      ],
      [
        "Ġbe",
        "hind"
      ],
      [
        "Ġnot",
        "ice"
      ],
      [
        "Ġco",
        "at"
      ],
      [
        "Ġsp",
        "ort"
      ],
      [
        "um",
        "b"
      ],
      [
        "Ġro",
        "ses"
      ],
      [
        "Ġ2",
        "5"
      ],
      [
        "Ġpay",
        "ing"
      ],
      [
        "Ġfl",
        "ow"
      ],
      [
        "Ġbig",
        "ger"
      ],
      [
        "Ġcolor",
        "s"
      ],
      [
        "ĠK",
        "eep"
      ],
      [
        "Ġsuit",
        "s"
      ],
      [
        "Ġpart",
        "y"
      ],
      [
        "Ġhand",
        "le"
      ],
      [
        "Ġrece",
        "ive"
      ],
      [
        "Ġele",
        "ct"
      ],
      [
        "Ġwar",
        "rant"
      ],
      [
        "Ġhat",
        "e"
      ],
      [
        "Ġsand",
        "w"
      ],
      [
        "Ġmag",
        "az"
      ],
      [
        "Ġdiffic",
        "ult"
      ],
      [
        "Ġhosp",
        "ital"
      ],
      [
        "a",
        "h"
      ],
      [
        "m",
        "arket"
      ],
      [
        "s",
        "ing"
      ],
      [
        "u",
        "c"
      ],
      [
        "Ġm",
        "other"
      ],
      [
        "Ġd",
        "ra"
      ],
      [
        "Ġp",
        "at"
      ],
      [
        "Ġn",
        "ut"
      ],
      [
        "ri",
        "st"
      ],
      [
        "out",
        "h"
      ],
      [
        "ell",
        "ow"
      ],
      [
        "Ġj",
        "am"
      ],
      [
        "ack",
        "et"
      ],
      [
        "Ġsp",
        "eed"
      ],
      [
        "Ġcom",
        "fortable"
      ],
      [
        "ĠR",
        "e"
      ],
      [
        "Ġv",
        "iew"
      ],
      [
        "Ġroom",
        "s"
      ],
      [
        "Ġke",
        "y"
      ],
      [
        "Ġun",
        "iversity"
      ],
      [
        "Ġloc",
        "al"
      ],
      [
        "Ġappet",
        "iz"
      ],
      [
        "Ġey",
        "es"
      ],
      [
        "Ġpare",
        "nts"
      ],
      [
        "ĠHot",
        "el"
      ],
      [
        "Ġwarrant",
        "y"
      ],
      [
        "A",
        "nd"
      ],
      [
        "d",
        "le"
      ],
      [
        "i",
        "jing"
      ],
      [
        "Ġ",
        "%"
      ],
      [
        "Ġs",
        "yst"
      ],
      [
        "Ġw",
        "he"
      ],
      [
        "on",
        "na"
      ],
      [
        "ri",
        "end"
      ],
      [
        "ĠB",
        "l"
      ],
      [
        "ure",
        "d"
      ],
      [
        "Ġwor",
        "d"
      ],
      [
        "Ġr",
        "ush"
      ],
      [
        "un",
        "k"
      ],
      [
        "ation",
        "al"
      ],
      [
        "Ġqu",
        "iet"
      ],
      [
        "Ġpr",
        "ices"
      ],
      [
        "Ġcon",
        "f"
      ],
      [
        "Ġman",
        "ag"
      ],
      [
        "Ġpre",
        "p"
      ],
      [
        "Ġtr",
        "ouble"
      ],
      [
        "Ġapp",
        "le"
      ],
      [
        "Ġcomp",
        "let"
      ],
      [
        "ip",
        "s"
      ],
      [
        "Ġser",
        "ious"
      ],
      [
        "ĠU",
        "m"
      ],
      [
        "Ġdep",
        "ends"
      ],
      [
        "Ġstud",
        "y"
      ],
      [
        "ĠBe",
        "ijing"
      ],
      [
        "Ġtow",
        "n"
      ],
      [
        "Ġsuper",
        "market"
      ],
      [
        "D",
        "id"
      ],
      [
        "t",
        "o"
      ],
      [
        "Ġt",
        "ou"
      ],
      [
        "Ġs",
        "at"
      ],
      [
        "Ġm",
        "et"
      ],
      [
        "Ġb",
        "all"
      ],
      [
        "Ġd",
        "ark"
      ],
      [
        "Ġth",
        "row"
      ],
      [
        "Ġh",
        "it"
      ],
      [
        "ĠA",
        "h"
      ],
      [
        "Ġab",
        "solutely"
      ],
      [
        "Ġso",
        "ld"
      ],
      [
        "Ġas",
        "king"
      ],
      [
        "Ġtoo",
        "k"
      ],
      [
        "Ġ1",
        "6"
      ],
      [
        "Ġbr",
        "own"
      ],
      [
        "ol",
        "og"
      ],
      [
        "Ġhome",
        "work"
      ],
      [
        "Ġper",
        "cent"
      ],
      [
        "Ġplay",
        "er"
      ],
      [
        "Ġins",
        "p"
      ],
      [
        "Ġwatch",
        "ing"
      ],
      [
        "Ġkid",
        "ding"
      ],
      [
        "Ġty",
        "pe"
      ],
      [
        "Ġreserv",
        "ation"
      ],
      [
        "Ġvis",
        "it"
      ],
      [
        "ĠBec",
        "ause"
      ],
      [
        "Ġelect",
        "ric"
      ],
      [
        "M",
        "y"
      ],
      [
        "T",
        "here"
      ],
      [
        "W",
        "el"
      ],
      [
        "g",
        "an"
      ],
      [
        "i",
        "ed"
      ],
      [
        "u",
        "ll"
      ],
      [
        "Ġs",
        "ense"
      ],
      [
        "Ġm",
        "ater"
      ],
      [
        "Ġm",
        "easure"
      ],
      [
        "Ġf",
        "all"
      ],
      [
        "Ġf",
        "ore"
      ],
      [
        "Ġl",
        "ic"
      ],
      [
        "Ġp",
        "izza"
      ],
      [
        "ĠW",
        "ith"
      ],
      [
        "st",
        "ick"
      ],
      [
        "en",
        "s"
      ],
      [
        "Ġin",
        "c"
      ],
      [
        "Ġli",
        "fe"
      ],
      [
        "ill",
        "y"
      ],
      [
        "ĠB",
        "ar"
      ],
      [
        "Ġany",
        "one"
      ],
      [
        "ast",
        "ic"
      ],
      [
        "Ġsu",
        "mmer"
      ],
      [
        "ĠP",
        "ark"
      ],
      [
        "Ġcl",
        "os"
      ],
      [
        "Ġman",
        "g"
      ],
      [
        "Ġpre",
        "se"
      ],
      [
        "Ġfl",
        "at"
      ],
      [
        "ist",
        "er"
      ],
      [
        "Ġle",
        "g"
      ],
      [
        "Ġ4",
        "0"
      ],
      [
        "Ġsl",
        "ow"
      ],
      [
        "Ġdog",
        "s"
      ],
      [
        "Ġfam",
        "ous"
      ],
      [
        "Ġbro",
        "ken"
      ],
      [
        "ĠAmeric",
        "a"
      ],
      [
        "Ġdire",
        "ction"
      ],
      [
        "Ġbeg",
        "in"
      ],
      [
        "ĠSm",
        "ith"
      ],
      [
        "ĠMad",
        "am"
      ],
      [
        "bed",
        "room"
      ],
      [
        "Ġsandw",
        "ich"
      ],
      [
        "Wel",
        "come"
      ],
      [
        "Ġmater",
        "ial"
      ],
      [
        "I",
        "f"
      ],
      [
        "d",
        "ge"
      ],
      [
        "i",
        "or"
      ],
      [
        "o",
        "ver"
      ],
      [
        "o",
        "ff"
      ],
      [
        "Ġm",
        "as"
      ],
      [
        "er",
        "ing"
      ],
      [
        "Ġf",
        "are"
      ],
      [
        "Ġd",
        "ad"
      ],
      [
        "Ġd",
        "anc"
      ],
      [
        "Ġg",
        "ra"
      ],
      [
        "Ġg",
        "onna"
      ],
      [
        "ĠT",
        "r"
      ],
      [
        "en",
        "er"
      ],
      [
        "ĠS",
        "p"
      ],
      [
        "pp",
        "er"
      ],
      [
        "Ġr",
        "ad"
      ],
      [
        "Ġcould",
        "n"
      ],
      [
        "ard",
        "en"
      ],
      [
        "Ġlong",
        "er"
      ],
      [
        "Ġtea",
        "ch"
      ],
      [
        "Ġstud",
        "ents"
      ],
      [
        "Ġref",
        "und"
      ],
      [
        "bo",
        "ard"
      ],
      [
        "Ġprodu",
        "ce"
      ],
      [
        "Ġbar",
        "gain"
      ],
      [
        "Ġread",
        "ing"
      ],
      [
        "Ġhur",
        "t"
      ],
      [
        "ĠSh",
        "ould"
      ],
      [
        "ĠAmeric",
        "an"
      ],
      [
        "Ġpol",
        "ice"
      ],
      [
        "Ġquest",
        "ion"
      ],
      [
        "Ġwin",
        "ter"
      ],
      [
        "Ġsyst",
        "em"
      ],
      [
        "i",
        "b"
      ],
      [
        "t",
        "op"
      ],
      [
        "u",
        "g"
      ],
      [
        "Ġ",
        "ut"
      ],
      [
        "Ġw",
        "rap"
      ],
      [
        "Ġm",
        "ix"
      ],
      [
        "Ġm",
        "ention"
      ],
      [
        "Ġb",
        "right"
      ],
      [
        "Ġf",
        "act"
      ],
      [
        "Ġd",
        "am"
      ],
      [
        "Ġd",
        "ance"
      ],
      [
        "Ġl",
        "am"
      ],
      [
        "Ġg",
        "ames"
      ],
      [
        "Ġo",
        "h"
      ],
      [
        "Ġdo",
        "ctor"
      ],
      [
        "Ġh",
        "on"
      ],
      [
        "ĠH",
        "a"
      ],
      [
        "ĠS",
        "und"
      ],
      [
        "Ġyour",
        "s"
      ],
      [
        "al",
        "s"
      ],
      [
        "il",
        "ities"
      ],
      [
        "Ġex",
        "cept"
      ],
      [
        "Ġpro",
        "per"
      ],
      [
        "ig",
        "ital"
      ],
      [
        "Ġshould",
        "n"
      ],
      [
        "Ġ1",
        "1"
      ],
      [
        "ap",
        "ers"
      ],
      [
        "Ġevery",
        "one"
      ],
      [
        "ile",
        "d"
      ],
      [
        "Ġrec",
        "ord"
      ],
      [
        "Ġplay",
        "ing"
      ],
      [
        "Ġwonder",
        "ing"
      ],
      [
        "ĠEvery",
        "thing"
      ],
      [
        "Ġmov",
        "ie"
      ],
      [
        "ĠSund",
        "ay"
      ],
      [
        "3",
        "0"
      ],
      [
        "M",
        "om"
      ],
      [
        "b",
        "all"
      ],
      [
        "b",
        "and"
      ],
      [
        "c",
        "er"
      ],
      [
        "d",
        "a"
      ],
      [
        "f",
        "ood"
      ],
      [
        "i",
        "ents"
      ],
      [
        "l",
        "ace"
      ],
      [
        "m",
        "ed"
      ],
      [
        "Ġ",
        "z"
      ],
      [
        "Ġa",
        "w"
      ],
      [
        "Ġc",
        "ab"
      ],
      [
        "on",
        "y"
      ],
      [
        "Ġf",
        "ace"
      ],
      [
        "Ġd",
        "ar"
      ],
      [
        "Ġd",
        "ef"
      ],
      [
        "Ġp",
        "ork"
      ],
      [
        "ar",
        "ant"
      ],
      [
        "ic",
        "le"
      ],
      [
        "at",
        "o"
      ],
      [
        "ĠS",
        "hall"
      ],
      [
        "ĠM",
        "ake"
      ],
      [
        "ter",
        "s"
      ],
      [
        "ĠB",
        "ob"
      ],
      [
        "il",
        "t"
      ],
      [
        "il",
        "et"
      ],
      [
        "ĠTh",
        "ose"
      ],
      [
        "Ġqu",
        "ar"
      ],
      [
        "ous",
        "es"
      ],
      [
        "Ġus",
        "ing"
      ],
      [
        "Ġbr",
        "other"
      ],
      [
        "Ġ3",
        "00"
      ],
      [
        "Ġstop",
        "s"
      ],
      [
        "Ġse",
        "le"
      ],
      [
        "Ġfift",
        "een"
      ],
      [
        "Ġluck",
        "y"
      ],
      [
        "Ġpict",
        "ure"
      ],
      [
        "Ġtrans",
        "fer"
      ],
      [
        "Ġtele",
        "phone"
      ],
      [
        "Ġsea",
        "food"
      ],
      [
        "Ġpurcha",
        "se"
      ],
      [
        "Ġpub",
        "lic"
      ],
      [
        "Ġflow",
        "ers"
      ],
      [
        "Ġmanag",
        "er"
      ],
      [
        "2",
        "5"
      ],
      [
        "T",
        "hank"
      ],
      [
        "e",
        "ight"
      ],
      [
        "m",
        "ore"
      ],
      [
        "r",
        "ing"
      ],
      [
        "s",
        "m"
      ],
      [
        "Ġ",
        "ing"
      ],
      [
        "in",
        "ite"
      ],
      [
        "Ġs",
        "ister"
      ],
      [
        "Ġc",
        "ere"
      ],
      [
        "Ġb",
        "aby"
      ],
      [
        "Ġf",
        "itting"
      ],
      [
        "ot",
        "or"
      ],
      [
        "ĠâĢ",
        "Ķ"
      ],
      [
        "ĠâĢ",
        "Ŀ"
      ],
      [
        "Ġst",
        "ick"
      ],
      [
        "Ġne",
        "ck"
      ],
      [
        "Ġpl",
        "aces"
      ],
      [
        "Ġsp",
        "eaking"
      ],
      [
        "Ġcar",
        "s"
      ],
      [
        "ect",
        "ed"
      ],
      [
        "Ġtell",
        "ing"
      ],
      [
        "Ġlot",
        "s"
      ],
      [
        "Ġchan",
        "n"
      ],
      [
        "Ġrec",
        "ently"
      ],
      [
        "air",
        "s"
      ],
      [
        "Ġdec",
        "ide"
      ],
      [
        "Ġcont",
        "ro"
      ],
      [
        "Ġstud",
        "ent"
      ],
      [
        "Ġnews",
        "p"
      ],
      [
        "Ġsim",
        "ple"
      ],
      [
        "Ġpict",
        "ures"
      ],
      [
        "Ġsmo",
        "king"
      ],
      [
        "fu",
        "lly"
      ],
      [
        "ĠSomet",
        "imes"
      ],
      [
        "Ġing",
        "red"
      ],
      [
        "b",
        "ie"
      ],
      [
        "i",
        "qu"
      ],
      [
        "l",
        "it"
      ],
      [
        "m",
        "as"
      ],
      [
        "Ġ",
        "ed"
      ],
      [
        "Ġs",
        "ong"
      ],
      [
        "Ġm",
        "ount"
      ],
      [
        "Ġc",
        "able"
      ],
      [
        "an",
        "e"
      ],
      [
        "es",
        "tern"
      ],
      [
        "ow",
        "nt"
      ],
      [
        "ĠT",
        "urn"
      ],
      [
        "Ġfor",
        "ward"
      ],
      [
        "Ġhe",
        "at"
      ],
      [
        "Ġh",
        "u"
      ],
      [
        "ĠS",
        "u"
      ],
      [
        "ĠS",
        "ir"
      ],
      [
        "ĠC",
        "o"
      ],
      [
        "Ġor",
        "gan"
      ],
      [
        "ĠL",
        "ast"
      ],
      [
        "ĠP",
        "eter"
      ],
      [
        "ĠF",
        "r"
      ],
      [
        "Ġv",
        "al"
      ],
      [
        "lf",
        "riend"
      ],
      [
        "Ġen",
        "g"
      ],
      [
        "pt",
        "ion"
      ],
      [
        "Ġticket",
        "s"
      ],
      [
        "ĠOn",
        "ly"
      ],
      [
        "Ġown",
        "ers"
      ],
      [
        "Ġgir",
        "l"
      ],
      [
        "Ġgir",
        "lfriend"
      ],
      [
        "ti",
        "me"
      ],
      [
        "Ġrem",
        "ind"
      ],
      [
        "Ġterri",
        "ble"
      ],
      [
        "Ġla",
        "und"
      ],
      [
        "Ġmod",
        "el"
      ],
      [
        "Ġdro",
        "p"
      ],
      [
        "Ġmid",
        "dle"
      ],
      [
        "Ġrad",
        "io"
      ],
      [
        "Ġingred",
        "ients"
      ],
      [
        "d",
        "ed"
      ],
      [
        "e",
        "ms"
      ],
      [
        "i",
        "me"
      ],
      [
        "u",
        "ri"
      ],
      [
        "y",
        "le"
      ],
      [
        "Ġt",
        "ight"
      ],
      [
        "in",
        "um"
      ],
      [
        "Ġw",
        "ake"
      ],
      [
        "Ġm",
        "ist"
      ],
      [
        "Ġc",
        "ha"
      ],
      [
        "Ġb",
        "reat"
      ],
      [
        "Ġto",
        "ilet"
      ],
      [
        "Ġf",
        "ac"
      ],
      [
        "Ġf",
        "air"
      ],
      [
        "Ġd",
        "uring"
      ],
      [
        "Ġd",
        "ownt"
      ],
      [
        "or",
        "ies"
      ],
      [
        "Ġp",
        "ri"
      ],
      [
        "Ġg",
        "ave"
      ],
      [
        "ar",
        "a"
      ],
      [
        "ĠY",
        "ork"
      ],
      [
        "at",
        "c"
      ],
      [
        "ut",
        "h"
      ],
      [
        "Ġh",
        "us"
      ],
      [
        "ĠO",
        "r"
      ],
      [
        "Ġst",
        "ea"
      ],
      [
        "Ġk",
        "ill"
      ],
      [
        "ĠD",
        "an"
      ],
      [
        "Ġwas",
        "hed"
      ],
      [
        "Ġbus",
        "es"
      ],
      [
        "Ġmo",
        "ving"
      ],
      [
        "ĠCh",
        "rist"
      ],
      [
        "Ġturn",
        "ed"
      ],
      [
        "Ġsw",
        "im"
      ],
      [
        "Ġeas",
        "ily"
      ],
      [
        "ition",
        "al"
      ],
      [
        "Ġri",
        "d"
      ],
      [
        "Ġloc",
        "ated"
      ],
      [
        "Ġpot",
        "atoes"
      ],
      [
        "Ġrel",
        "ax"
      ],
      [
        "Ġcamer",
        "a"
      ],
      [
        "Ġblock",
        "s"
      ],
      [
        "Ġappetiz",
        "er"
      ],
      [
        "Ġdanc",
        "ing"
      ],
      [
        "inite",
        "ly"
      ],
      [
        "Ġhus",
        "band"
      ],
      [
        "c",
        "ut"
      ],
      [
        "d",
        "en"
      ],
      [
        "g",
        "r"
      ],
      [
        "g",
        "y"
      ],
      [
        "i",
        "ving"
      ],
      [
        "l",
        "o"
      ],
      [
        "l",
        "ves"
      ],
      [
        "w",
        "een"
      ],
      [
        "Ġs",
        "quare"
      ],
      [
        "Ġm",
        "all"
      ],
      [
        "Ġm",
        "otor"
      ],
      [
        "Ġf",
        "oot"
      ],
      [
        "Ġl",
        "and"
      ],
      [
        "Ġha",
        "bit"
      ],
      [
        "ar",
        "ian"
      ],
      [
        "oo",
        "f"
      ],
      [
        "Ġre",
        "qu"
      ],
      [
        "Ġli",
        "kes"
      ],
      [
        "Ġh",
        "ig"
      ],
      [
        "Ġst",
        "ep"
      ],
      [
        "Ġst",
        "ock"
      ],
      [
        "ir",
        "us"
      ],
      [
        "Ġan",
        "ti"
      ],
      [
        "ĠB",
        "esides"
      ],
      [
        "Ġex",
        "per"
      ],
      [
        "ĠP",
        "e"
      ],
      [
        "Ġr",
        "ing"
      ],
      [
        "ĠJ",
        "im"
      ],
      [
        "Ġapp",
        "l"
      ],
      [
        "Ġad",
        "s"
      ],
      [
        "Ġgu",
        "arant"
      ],
      [
        "Ġdrink",
        "ing"
      ],
      [
        "Ġbo",
        "y"
      ],
      [
        "ĠU",
        "h"
      ],
      [
        "Ġair",
        "port"
      ],
      [
        "Ġdress",
        "ing"
      ],
      [
        "ĠMr",
        "s"
      ],
      [
        "Ġfast",
        "er"
      ],
      [
        "az",
        "ing"
      ],
      [
        "Ġshirt",
        "s"
      ],
      [
        "Ġbro",
        "ke"
      ],
      [
        "Ġinclud",
        "ed"
      ],
      [
        "Ġquick",
        "ly"
      ],
      [
        "Ġsur",
        "f"
      ],
      [
        "Ġcomplet",
        "ely"
      ],
      [
        "Ġdar",
        "ling"
      ],
      [
        "Ġmist",
        "ake"
      ],
      [
        "Ġdownt",
        "own"
      ],
      [
        "a",
        "le"
      ],
      [
        "c",
        "ed"
      ],
      [
        "c",
        "ked"
      ],
      [
        "e",
        "ven"
      ],
      [
        "h",
        "ood"
      ],
      [
        "r",
        "ot"
      ],
      [
        "Ġt",
        "ur"
      ],
      [
        "re",
        "st"
      ],
      [
        "Ġm",
        "ir"
      ],
      [
        "Ġc",
        "op"
      ],
      [
        "Ġb",
        "ri"
      ],
      [
        "Ġg",
        "arden"
      ],
      [
        "Ġo",
        "per"
      ],
      [
        "Ġth",
        "in"
      ],
      [
        "ic",
        "ed"
      ],
      [
        "ĠA",
        "cc"
      ],
      [
        "Ġst",
        "am"
      ],
      [
        "Ġan",
        "n"
      ],
      [
        "ĠC",
        "l"
      ],
      [
        "ĠN",
        "ever"
      ],
      [
        "ĠM",
        "ost"
      ],
      [
        "ĠM",
        "iss"
      ],
      [
        "ur",
        "ry"
      ],
      [
        "ur",
        "ger"
      ],
      [
        "Ġgood",
        "s"
      ],
      [
        "ast",
        "e"
      ],
      [
        "Ġpro",
        "v"
      ],
      [
        "Ġsp",
        "ot"
      ],
      [
        "Ġwor",
        "ried"
      ],
      [
        "Ġr",
        "ange"
      ],
      [
        "Ġam",
        "azing"
      ],
      [
        "ate",
        "ly"
      ],
      [
        "gg",
        "ing"
      ],
      [
        "ĠNot",
        "hing"
      ],
      [
        "Ġstore",
        "s"
      ],
      [
        "Ġhand",
        "s"
      ],
      [
        "Ġear",
        "l"
      ],
      [
        "Ġtri",
        "p"
      ],
      [
        "Ġnear",
        "by"
      ],
      [
        "Ġjo",
        "in"
      ],
      [
        "Ġdes",
        "k"
      ],
      [
        "ĠGo",
        "d"
      ],
      [
        "Ġgr",
        "ound"
      ],
      [
        "Ġatt",
        "ract"
      ],
      [
        "Ġstr",
        "ong"
      ],
      [
        "Ġbox",
        "es"
      ],
      [
        "iet",
        "y"
      ],
      [
        "Ġwall",
        "s"
      ],
      [
        "Ġexam",
        "ple"
      ],
      [
        "Ġbet",
        "ween"
      ],
      [
        "Ġsil",
        "k"
      ],
      [
        "Ġconsid",
        "er"
      ],
      [
        "ĠGr",
        "and"
      ],
      [
        "Ġprep",
        "are"
      ],
      [
        "Ġtou",
        "ch"
      ],
      [
        "Ġlic",
        "ense"
      ],
      [
        "Ġlaund",
        "ry"
      ],
      [
        "c",
        "um"
      ],
      [
        "o",
        "ice"
      ],
      [
        "r",
        "on"
      ],
      [
        "t",
        "or"
      ],
      [
        "u",
        "le"
      ],
      [
        "y",
        "m"
      ],
      [
        "Ġ",
        "Q"
      ],
      [
        "Ġ",
        "Â"
      ],
      [
        "Ġt",
        "ap"
      ],
      [
        "ou",
        "b"
      ],
      [
        "Ġw",
        "om"
      ],
      [
        "Ġw",
        "alking"
      ],
      [
        "Ġb",
        "ow"
      ],
      [
        "Ġf",
        "ra"
      ],
      [
        "Ġd",
        "et"
      ],
      [
        "or",
        "ing"
      ],
      [
        "Ġl",
        "eather"
      ],
      [
        "Ġp",
        "as"
      ],
      [
        "Ġp",
        "ipe"
      ],
      [
        "Ġg",
        "ym"
      ],
      [
        "it",
        "ed"
      ],
      [
        "se",
        "lves"
      ],
      [
        "Ġth",
        "ird"
      ],
      [
        "is",
        "f"
      ],
      [
        "ic",
        "ally"
      ],
      [
        "Ġan",
        "im"
      ],
      [
        "ĠN",
        "e"
      ],
      [
        "Ġsh",
        "oe"
      ],
      [
        "Ġsome",
        "where"
      ],
      [
        "ur",
        "ance"
      ],
      [
        "Ġor",
        "ange"
      ],
      [
        "Ġcar",
        "ry"
      ],
      [
        "um",
        "p"
      ],
      [
        "ĠIs",
        "n"
      ],
      [
        "res",
        "sed"
      ],
      [
        "Ġbr",
        "ought"
      ],
      [
        "Ġroom",
        "m"
      ],
      [
        "Ġchan",
        "ce"
      ],
      [
        "Ġapartment",
        "s"
      ],
      [
        "Ġshow",
        "er"
      ],
      [
        "Ġph",
        "ot"
      ],
      [
        "Ġun",
        "f"
      ],
      [
        "Ġsal",
        "t"
      ],
      [
        "Ġres",
        "er"
      ],
      [
        "Ġfix",
        "ed"
      ],
      [
        "enc",
        "y"
      ],
      [
        "Ġcent",
        "er"
      ],
      [
        "Ġcustom",
        "er"
      ],
      [
        "Ġord",
        "ered"
      ],
      [
        "Ġcra",
        "zy"
      ],
      [
        "cri",
        "be"
      ],
      [
        "Ġprog",
        "ram"
      ],
      [
        "Ġregist",
        "ered"
      ],
      [
        "Ġmang",
        "oes"
      ],
      [
        "ĠChrist",
        "mas"
      ],
      [
        "Ġguarant",
        "ee"
      ],
      [
        "W",
        "ait"
      ],
      [
        "b",
        "r"
      ],
      [
        "m",
        "a"
      ],
      [
        "t",
        "le"
      ],
      [
        "u",
        "ction"
      ],
      [
        "Ġ",
        "Z"
      ],
      [
        "Ġt",
        "re"
      ],
      [
        "Ġy",
        "ellow"
      ],
      [
        "Ġc",
        "row"
      ],
      [
        "Ġc",
        "ooked"
      ],
      [
        "Ġb",
        "other"
      ],
      [
        "Ġl",
        "ap"
      ],
      [
        "Ġp",
        "apers"
      ],
      [
        "ve",
        "nt"
      ],
      [
        "Ġn",
        "on"
      ],
      [
        "Ġit",
        "ems"
      ],
      [
        "en",
        "a"
      ],
      [
        "ĠâĢ",
        "ľ"
      ],
      [
        "Ġli",
        "p"
      ],
      [
        "ĠH",
        "oney"
      ],
      [
        "Ġe",
        "qu"
      ],
      [
        "ĠIt",
        "al"
      ],
      [
        "ĠC",
        "ool"
      ],
      [
        "ad",
        "ena"
      ],
      [
        "ĠM",
        "ar"
      ],
      [
        "Ġbu",
        "ilt"
      ],
      [
        "Ġany",
        "where"
      ],
      [
        "ive",
        "red"
      ],
      [
        "Ġco",
        "ver"
      ],
      [
        "ast",
        "er"
      ],
      [
        "Ġpro",
        "f"
      ],
      [
        "Ġam",
        "ount"
      ],
      [
        "Ġar",
        "r"
      ],
      [
        "os",
        "h"
      ],
      [
        "Ġtr",
        "uth"
      ],
      [
        "Ġfl",
        "ight"
      ],
      [
        "Ġcomp",
        "lic"
      ],
      [
        "Ġsm",
        "art"
      ],
      [
        "Ġgu",
        "ys"
      ],
      [
        "Ġsay",
        "ing"
      ],
      [
        "Ġsha",
        "d"
      ],
      [
        "Ġsal",
        "es"
      ],
      [
        "ian",
        "ces"
      ],
      [
        "Ġdel",
        "ivered"
      ],
      [
        "Ġtri",
        "m"
      ],
      [
        "Ġclean",
        "ing"
      ],
      [
        "Ġair",
        "mail"
      ],
      [
        "Ġpar",
        "cel"
      ],
      [
        "Ġreal",
        "tor"
      ],
      [
        "Ġra",
        "il"
      ],
      [
        "Ġfit",
        "s"
      ],
      [
        "The",
        "y"
      ],
      [
        "Ġrep",
        "ort"
      ],
      [
        "Ġexc",
        "han"
      ],
      [
        "vel",
        "op"
      ],
      [
        "Ġsn",
        "ack"
      ],
      [
        "Ġvar",
        "ious"
      ],
      [
        "Ġchop",
        "s"
      ],
      [
        "Ġdeli",
        "very"
      ],
      [
        "Ġpract",
        "ice"
      ],
      [
        "Ġfa",
        "ult"
      ],
      [
        "Ġpa",
        "id"
      ],
      [
        "ĠRo",
        "ad"
      ],
      [
        "Ġreason",
        "able"
      ],
      [
        "Ġmagaz",
        "ine"
      ],
      [
        "Ġsat",
        "isf"
      ],
      [
        "ĠBar",
        "bie"
      ],
      [
        "Ġprese",
        "nt"
      ],
      [
        "Ġsele",
        "ction"
      ],
      [
        "Ġcontro",
        "l"
      ],
      [
        "ĠAcc",
        "ord"
      ],
      [
        "Ġcomplic",
        "ated"
      ],
      [
        "h",
        "ip"
      ],
      [
        "in",
        "et"
      ],
      [
        "Ġs",
        "ent"
      ],
      [
        "re",
        "ct"
      ],
      [
        "Ġi",
        "mm"
      ],
      [
        "Ġb",
        "ra"
      ],
      [
        "Ġd",
        "igital"
      ],
      [
        "Ġp",
        "ress"
      ],
      [
        "Ġp",
        "ower"
      ],
      [
        "Ġp",
        "ull"
      ],
      [
        "es",
        "day"
      ],
      [
        "Ġn",
        "ine"
      ],
      [
        "ĠT",
        "ry"
      ],
      [
        "ĠW",
        "as"
      ],
      [
        "Ġo",
        "pp"
      ],
      [
        "Ġhe",
        "art"
      ],
      [
        "Ġme",
        "m"
      ],
      [
        "Ġwe",
        "igh"
[...]
